<unk>	0
<s>	0
</s>	0
▁de	-3.22305
,	-3.46427
.	-3.75976
s	-3.81049
'	-3.93491
▁la	-4.09463
’	-4.12027
▁à	-4.21253
▁le	-4.27112
▁d	-4.2971
▁l	-4.3105
▁et	-4.43256
▁les	-4.48969
▁des	-4.51355
▁en	-4.56526
▁du	-4.75642
-	-4.77956
▁	-4.95542
▁un	-5.08997
▁pour	-5.09318
▁:	-5.13669
▁sur	-5.22217
e	-5.2954
▁une	-5.33109
▁par	-5.35541
▁(	-5.3642
▁a	-5.44109
▁dans	-5.44469
▁est	-5.48216
▁au	-5.48366
▁que	-5.57957
▁qui	-5.61109
▁Le	-5.64052
▁«	-5.64521
)	-5.71082
▁plus	-5.75085
n	-5.77932
▁ou	-5.86785
▁-	-5.88265
▁pas	-5.89865
r	-5.97102
▁La	-6.00256
▁s	-6.01983
un	-6.09773
▁»	-6.11378
est	-6.11632
▁L	-6.14851
▁son	-6.16282
▁avec	-6.16331
▁n	-6.17241
▁vous	-6.17694
▁Les	-6.19007
▁sont	-6.19288
▁ce	-6.21139
▁aux	-6.22514
▁ne	-6.24253
▁se	-6.25319
es	-6.28954
▁qu	-6.3902
▁votre	-6.41414
▁?	-6.43987
a	-6.44291
une	-6.44441
il	-6.46886
er	-6.49828
▁il	-6.55398
nt	-6.56575
▁A	-6.61114
\	-6.61204
▁,	-6.6131
t	-6.65777
▁ont	-6.68514
▁sa	-6.69733
▁1	-6.70818
▁ses	-6.72438
▁En	-6.74834
▁C	-6.76352
▁"	-6.77159
▁Il	-6.82864
▁leur	-6.843
▁ans	-6.84814
▁être	-6.85342
▁cette	-6.86091
▁France	-6.86216
▁|	-6.86901
h	-6.89122
▁.	-6.89553
▁aussi	-6.89919
▁été	-6.91325
▁%	-6.94449
ment	-6.98055
▁c	-6.98485
▁euros	-6.99083
é	-7.00815
▁mais	-7.01314
▁comme	-7.01976
▁peut	-7.02581
...	-7.0332
▁taux	-7.05598
▁compte	-7.06742
▁Pour	-7.07641
).	-7.07747
y	-7.08058
▁2	-7.08457
en	-7.10583
▁si	-7.10599
▁fait	-7.108
▁entre	-7.10868
▁cas	-7.11051
▁mois	-7.123
/	-7.13879
▁deux	-7.14776
▁3	-7.16035
▁B	-7.18159
assurance	-7.18792
▁faire	-7.19924
▁tout	-7.20968
),	-7.21246
▁bien	-7.22161
▁ces	-7.22365
on	-7.2238
▁même	-7.24004
▁S	-7.25486
z	-7.27815
▁5	-7.29705
▁sans	-7.30906
S	-7.33099
▁moins	-7.34154
▁depuis	-7.34197
▁Un	-7.35054
▁D	-7.36279
▁contrat	-7.3679
▁vos	-7.36939
▁10	-7.37264
▁2018	-7.37822
▁nous	-7.3793
▁marché	-7.42327
▁;	-7.43028
▁>	-7.43036
▁millions	-7.43397
▁contre	-7.44667
euros	-7.45596
▁leurs	-7.46215
▁»,	-7.46523
▁Une	-7.4694
▁y	-7.47185
ant	-7.4732
▁très	-7.47492
▁après	-7.48099
▁M	-7.48588
▁\	-7.49136
▁4	-7.49471
le	-7.49746
▁crédit	-7.49816
o	-7.50978
▁Paris	-7.51667
▁Si	-7.51774
▁jour	-7.51824
▁non	-7.52111
▁groupe	-7.53585
▁ligne	-7.54139
▁prix	-7.54528
"	-7.54735
▁encore	-7.54809
▁vie	-7.5492
▁ainsi	-7.55
▁fonds	-7.55342
▁DE	-7.5554
▁dont	-7.55569
▁Ce	-7.55744
▁banque	-7.57324
▁!	-7.57335
à	-7.58346
A	-7.58816
c	-7.594
▁sous	-7.59491
▁également	-7.59907
▁Dans	-7.60661
▁tous	-7.6095
▁fin	-7.61381
▁avant	-7.62189
▁15	-7.62909
C	-7.63069
ci	-7.63289
d	-7.63366
▁€	-7.63955
▁doit	-7.64
▁soit	-7.64009
▁janvier	-7.64258
E	-7.65046
P	-7.65232
▁20	-7.65588
▁P	-7.66901
▁Mais	-7.67666
▁pays	-7.68355
com	-7.68462
in	-7.69014
▁va	-7.69108
de	-7.69326
▁selon	-7.69715
re	-7.6979
▁re	-7.70364
▁sera	-7.70648
elle	-7.71003
H	-7.71037
▁donc	-7.71283
l	-7.71338
▁2017	-7.71382
▁Banque	-7.72061
2	-7.72267
▁assurance	-7.7301
▁6	-7.73031
ra	-7.73354
▁De	-7.74604
D	-7.74842
ait	-7.74911
▁frais	-7.75127
▁entreprises	-7.75609
▁elle	-7.757
ent	-7.76318
▁12	-7.76371
▁Vous	-7.76632
▁milliards	-7.76711
▁on	-7.77004
▁F	-7.77885
▁cours	-7.78028
▁19	-7.78273
▁montant	-7.78854
▁premier	-7.79194
▁lui	-7.79838
▁G	-7.80336
▁000	-7.81122
au	-7.81557
▁avoir	-7.82437
▁18	-7.82867
▁notamment	-7.83182
▁temps	-7.83252
▁services	-7.83612
▁fois	-7.83893
▁place	-7.84348
B	-7.84914
▁gestion	-7.85334
T	-7.85367
▁banques	-7.85493
▁loi	-7.85911
▁–	-7.86074
année	-7.86238
▁lors	-7.86504
▁7	-7.86858
▁produits	-7.8689
▁projet	-7.86937
▁Cette	-7.87479
▁où	-7.8863
▁8	-7.88675
an	-7.88701
▁nouveau	-7.88929
▁hausse	-7.88989
▁service	-7.89142
▁nouvelle	-7.89207
▁décembre	-7.89549
▁revenus	-7.8967
▁R	-7.90416
▁société	-7.90441
▁président	-7.90789
▁avait	-7.91414
▁alors	-7.91559
▁retraite	-7.91632
▁T	-7.91653
▁30	-7.91838
or	-7.91868
▁prêt	-7.91878
m	-7.9213
▁11	-7.92506
ur	-7.92917
▁samedi	-7.93075
▁capital	-7.93279
▁Crédit	-7.93317
▁in	-7.93372
▁ré	-7.93623
▁Et	-7.93667
▁».	-7.93736
▁Bourse	-7.93905
M	-7.9393
▁permet	-7.94059
i	-7.94394
▁déjà	-7.9444
u	-7.94739
al	-7.95275
▁personnes	-7.95412
▁je	-7.95521
▁14	-7.95674
▁jusqu	-7.95721
G	-7.96156
▁an	-7.96473
▁février	-7.97383
▁17	-7.9758
▁bancaire	-7.97715
L	-7.97879
:	-7.98068
O	-7.98495
▁plusieurs	-7.98516
▁16	-7.98835
▁clients	-7.98938
entreprise	-7.99861
▁français	-7.99998
▁trois	-8.00208
▁rapport	-8.00364
▁Au	-8.00621
▁N	-8.0067
▁première	-8.0068
▁km	-8.00703
1	-8.00962
▁demande	-8.01225
p	-8.01342
▁peu	-8.01522
▁chez	-8.01712
▁peuvent	-8.01824
▁monde	-8.01973
▁dernier	-8.02492
▁9	-8.02983
▁faut	-8.03033
ou	-8.0367
ez	-8.03926
▁travail	-8.03936
▁E	-8.04522
▁baisse	-8.0457
▁13	-8.04682
F	-8.04887
épargne	-8.05038
▁mise	-8.05107
▁2019	-8.05188
ai	-8.05339
▁2016	-8.06181
▁titre	-8.06611
▁santé	-8.06658
▁carte	-8.06705
▁J	-8.06883
▁notre	-8.06988
impôt	-8.07418
▁site	-8.07794
ont	-8.07827
▁Lire	-8.08726
▁gouvernement	-8.08739
fr	-8.08836
▁billets	-8.08933
▁Des	-8.09071
▁risque	-8.09355
▁année	-8.09359
▁Par	-8.09893
▁dé	-8.09912
▁années	-8.09939
R	-8.10104
f	-8.10112
▁conditions	-8.10204
▁effet	-8.10534
ne	-8.10715
ation	-8.1076
▁paiement	-8.10822
▁part	-8.10899
▁données	-8.11141
▁ministre	-8.11897
▁Ouverte	-8.1233
▁jours	-8.12615
▁juin	-8.13192
▁autres	-8.1391
et	-8.14463
hui	-8.14685
it	-8.15003
être	-8.15245
up	-8.16282
▁partie	-8.16354
▁reste	-8.16377
▁Distributeur	-8.1683
▁novembre	-8.16959
▁Publié	-8.1733
▁secteur	-8.17393
▁Elle	-8.17658
▁septembre	-8.17689
▁nos	-8.17885
ée	-8.18003
▁croissance	-8.18045
▁droit	-8.18698
▁toujours	-8.19017
▁chaque	-8.19024
▁terme	-8.19113
▁Nous	-8.19222
Etat	-8.19434
°	-8.19475
▁[...]	-8.19749
ce	-8.19871
▁immobilier	-8.20034
▁CREDIT	-8.20278
0	-8.20285
▁nombre	-8.20728
▁octobre	-8.21297
▁niveau	-8.21641
▁MUTUEL	-8.22533
▁juillet	-8.22565
▁toute	-8.22602
▁point	-8.22738
▁m	-8.23368
N	-8.23398
▁mars	-8.23491
Unis	-8.23922
▁2015	-8.23937
▁quelques	-8.23944
▁CAISSE	-8.24178
▁21	-8.24684
▁exemple	-8.24699
▁cadre	-8.24746
▁Etats	-8.25135
▁était	-8.25397
▁H	-8.2549
▁25	-8.25647
ex	-8.26039
▁valeur	-8.26191
ils	-8.2685
▁général	-8.27127
ing	-8.27393
▁durée	-8.27403
▁début	-8.27625
▁vers	-8.27826
▁savoir	-8.279
▁mai	-8.27904
▁charge	-8.28512
▁pouvez	-8.28524
▁dollars	-8.28565
▁politique	-8.28667
▁partir	-8.29326
és	-8.29892
▁sécurité	-8.30216
5	-8.30593
▁24	-8.31291
la	-8.31858
▁moment	-8.32203
ons	-8.32315
▁grand	-8.32438
▁car	-8.32494
▁Français	-8.33704
▁situation	-8.3379
▁plan	-8.33957
▁logement	-8.34009
▁marchés	-8.34154
autres	-8.34224
▁toutes	-8.35518
▁Je	-8.35678
▁contrats	-8.35774
▁Jean	-8.35818
▁2014	-8.35836
▁financiers	-8.36266
▁cela	-8.36278
▁On	-8.36583
▁certains	-8.36656
▁bancaires	-8.37024
el	-8.37575
te	-8.37638
▁celui	-8.37822
▁fonction	-8.3807
▁j	-8.3824
▁Saint	-8.38434
▁auprès	-8.3845
▁afin	-8.38766
achat	-8.38841
▁revenu	-8.38898
g	-8.39225
activité	-8.39227
▁mis	-8.39288
▁actions	-8.39476
vie	-8.3956
▁total	-8.39824
▁salariés	-8.39834
ie	-8.4016
▁résultats	-8.40502
▁pourrait	-8.40582
▁développement	-8.40741
▁offre	-8.40835
▁près	-8.41136
ir	-8.4141
▁possible	-8.4155
▁ils	-8.42802
x	-8.43014
▁Mis	-8.43121
▁pouvoir	-8.43159
▁31	-8.43299
▁autre	-8.43425
V	-8.43513
▁Re	-8.43615
▁auto	-8.43643
vous	-8.44079
▁date	-8.44096
▁22	-8.44367
▁Ces	-8.44459
▁avril	-8.4493
▁Comment	-8.45071
té	-8.4534
ar	-8.45573
3	-8.45768
▁Avec	-8.46205
▁face	-8.46349
▁Livret	-8.46351
▁+	-8.46398
affaires	-8.46517
▁chiffre	-8.46905
▁nouveaux	-8.46995
▁économique	-8.47016
b	-8.47145
▁prendre	-8.47152
▁base	-8.472
at	-8.47297
▁mieux	-8.47357
U	-8.47596
aux	-8.47946
▁système	-8.47984
▁50	-8.48377
00	-8.48443
▁européenne	-8.48448
▁Monde	-8.48462
▁public	-8.48745
▁Macron	-8.48871
ici	-8.48939
▁droits	-8.49076
▁personne	-8.49082
▁vente	-8.49374
▁financement	-8.49525
les	-8.5041
▁sociale	-8.50452
▁Assurance	-8.50571
▁2013	-8.51067
▁client	-8.51073
investissement	-8.51137
▁pendant	-8.51624
▁cet	-8.51721
▁/	-8.51729
▁celle	-8.51757
▁seront	-8.51826
v	-8.52029
▁mon	-8.52059
▁aujourd	-8.52794
▁devrait	-8.52892
▁dès	-8.53044
▁française	-8.5306
▁nationale	-8.53187
ad	-8.53192
▁ceux	-8.54227
▁question	-8.54273
▁grande	-8.54278
able	-8.54295
aient	-8.54577
age	-8.5477
▁moyenne	-8.5482
us	-8.55062
▁mettre	-8.55066
▁veut	-8.55345
▁40	-8.55429
▁risques	-8.55548
▁23	-8.55832
▁comptes	-8.55926
co	-8.55949
eur	-8.56061
▁avez	-8.56353
4	-8.56476
▁Sur	-8.56592
▁directeur	-8.57094
ch	-8.57154
▁K	-8.57814
▁V	-8.57851
is	-8.57987
économie	-8.58147
▁Selon	-8.58295
▁choix	-8.58378
▁travaux	-8.58404
▁co	-8.58415
ensemble	-8.58742
%	-8.58947
▁nouvelles	-8.59247
▁mesure	-8.59483
▁lieu	-8.60088
▁doivent	-8.60148
▁véhicule	-8.60201
▁propose	-8.60295
▁garantie	-8.60511
▁produit	-8.60587
6	-8.60667
ard	-8.607
▁consommation	-8.6088
▁bénéficier	-8.60971
▁grâce	-8.61041
▁Après	-8.61312
▁pro	-8.61549
▁annoncé	-8.61552
▁désormais	-8.61568
▁régime	-8.61741
eau	-8.61913
▁dit	-8.62059
▁informations	-8.62221
▁I	-8.6228
▁période	-8.62432
▁août	-8.629
▁entreprise	-8.63141
▁start	-8.63295
▁sociaux	-8.6338
ac	-8.63473
▁recherche	-8.63565
▁coût	-8.64008
▁points	-8.64032
ité	-8.64092
ement	-8.64262
▁trimestre	-8.64811
▁ma	-8.65036
▁réforme	-8.65135
▁Europe	-8.65315
▁28	-8.65319
▁numérique	-8.65544
▁2012	-8.65544
▁26	-8.65844
▁p	-8.66134
▁O	-8.66194
▁moyen	-8.66367
▁déclaration	-8.66368
I	-8.66687
action	-8.66712
▁tour	-8.66949
▁27	-8.67014
k	-8.6744
▁100	-8.67554
▁lundi	-8.67838
▁publique	-8.68033
agit	-8.68552
im	-8.68617
▁bon	-8.68632
ine	-8.68673
▁Conseil	-8.69012
▁souvent	-8.6936
]	-8.69647
▁professionnels	-8.70236
▁quand	-8.70735
ré	-8.70848
▁é	-8.71117
▁mardi	-8.71405
▁financière	-8.71623
▁investisseurs	-8.71879
▁beaucoup	-8.71894
▁voiture	-8.72363
▁comment	-8.7249
▁conseil	-8.7255
▁RUE	-8.72653
▁Accueil	-8.72666
▁trop	-8.72769
▁vue	-8.73056
▁suite	-8.73225
▁jeudi	-8.73506
▁enfants	-8.7362
▁hors	-8.73639
que	-8.74089
▁[	-8.74259
op	-8.74273
▁sociétés	-8.74311
▁long	-8.74455
▁type	-8.7454
di	-8.74685
▁pris	-8.74884
am	-8.74979
▁•	-8.74995
▁explique	-8.7505
▁LA	-8.75076
▁e	-8.75626
▁américain	-8.75698
▁pré	-8.76409
▁certaines	-8.76624
▁fixe	-8.76671
▁me	-8.76741
offre	-8.76798
▁matière	-8.76909
▁Depuis	-8.7691
▁social	-8.76953
ot	-8.76967
▁...	-8.77121
▁sommes	-8.77182
ère	-8.77448
id	-8.77482
0%	-8.77503
▁03	-8.77524
ro	-8.77533
▁dossier	-8.77564
▁fiscale	-8.77857
▁crise	-8.77862
▁Trump	-8.77917
ner	-8.78036
▁ni	-8.78101
",	-8.78137
▁production	-8.783
▁François	-8.78372
w	-8.7841
▁européen	-8.7867
▁bonne	-8.78726
▁bourse	-8.78798
▁29	-8.78887
▁semaine	-8.78952
▁fiscal	-8.79011
▁h	-8.79143
▁puis	-8.79299
7	-8.79319
▁mercredi	-8.79381
Y	-8.79664
▁W	-8.79789
▁seulement	-8.80112
dé	-8.80128
▁protection	-8.80217
ma	-8.8061
K	-8.80692
▁serait	-8.80757
8	-8.80786
▁solution	-8.81064
▁coup	-8.81288
▁bas	-8.81333
▁livret	-8.81436
▁contrôle	-8.81451
▁qualité	-8.8153
▁particuliers	-8.81863
▁ailleurs	-8.82098
▁dernière	-8.82287
▁national	-8.82364
administration	-8.82618
▁réseau	-8.82663
▁épargne	-8.82774
▁ayant	-8.82841
9	-8.82894
▁êtes	-8.82919
20	-8.8293
isation	-8.83018
▁financier	-8.83288
▁côté	-8.83289
▁quatre	-8.83426
▁Caisse	-8.83444
▁devant	-8.83606
▁Ils	-8.83709
▁activité	-8.83818
argent	-8.84093
ées	-8.84282
▁décision	-8.84495
▁raison	-8.84553
information	-8.84655
▁prise	-8.84913
▁nombreux	-8.8492
▁départ	-8.85009
intérêt	-8.85247
▁tant	-8.85271
30	-8.85283
▁manière	-8.85291
con	-8.85422
▁besoin	-8.85467
(	-8.85599
▁garanties	-8.85616
▁Sa	-8.85732
▁code	-8.85861
ique	-8.85914
▁seul	-8.86095
▁b	-8.86222
5%	-8.86253
▁2011	-8.86308
▁Ma	-8.8632
▁dispositif	-8.86558
ème	-8.8661
▁jeunes	-8.86628
▁nom	-8.86738
▁zone	-8.8697
▁Plus	-8.8729
▁taxe	-8.87438
▁générale	-8.87611
▁accord	-8.87616
▁avons	-8.87676
▁Con	-8.87688
▁60	-8.87734
▁In	-8.87775
▁Chine	-8.87948
▁net	-8.87958
▁mesures	-8.88036
▁elles	-8.88045
▁création	-8.88058
▁heures	-8.88375
▁eux	-8.88422
▁délai	-8.88525
▁Commission	-8.88608
ter	-8.88891
accord	-8.88925
▁remboursement	-8.88944
▁haut	-8.89286
▁marque	-8.89343
▁f	-8.89418
▁activités	-8.89789
▁permis	-8.90036
▁forme	-8.90394
▁forte	-8.90406
▁font	-8.90442
▁mal	-8.90502
to	-8.90652
▁vont	-8.90719
▁personnel	-8.90842
elles	-8.91002
▁mobile	-8.91221
autre	-8.91343
article	-8.91346
▁simple	-8.91395
UE	-8.91438
▁cause	-8.91763
▁jamais	-8.91798
th	-8.91835
iste	-8.91907
▁rendement	-8.92065
me	-8.92123
▁vendredi	-8.92181
▁sein	-8.92247
▁cinq	-8.92309
rait	-8.92425
urs	-8.92535
▁À	-8.92659
▁Société	-8.92691
▁payer	-8.92757
▁09	-8.92871
▁passe	-8.93135
J	-8.93171
▁projets	-8.93193
▁Montant	-8.93385
▁budget	-8.93497
ol	-8.93497
aire	-8.93543
sse	-8.93632
▁dépenses	-8.93673
▁solutions	-8.93786
▁Agricole	-8.9384
▁prélèvement	-8.94014
▁ex	-8.94129
▁voir	-8.94146
▁rien	-8.94163
application	-8.94171
emploi	-8.94348
▁économiques	-8.94594
▁Car	-8.94669
min	-8.94707
▁programme	-8.94841
▁calcul	-8.94976
▁professionnelle	-8.95022
tra	-8.95091
▁2018,	-8.95461
▁ventes	-8.95491
IN	-8.95536
▁tête	-8.95645
▁réduction	-8.95721
▁grandes	-8.95953
par	-8.9605
▁presse	-8.96122
▁euro	-8.96248
▁trouver	-8.96525
▁tiers	-8.96639
▁stratégie	-8.96673
▁Internet	-8.96853
ge	-8.96889
▁etc	-8.97092
▁Co	-8.97183
ance	-8.9738
W	-8.97602
▁limite	-8.97645
▁publics	-8.97722
▁technique	-8.97805
ouverture	-8.97897
▁retour	-8.97961
▁deuxième	-8.98133
▁porte	-8.98528
isme	-8.98741
▁vient	-8.98791
▁Al	-8.98801
▁Google	-8.99198
▁titres	-8.99316
▁famille	-8.99402
ront	-8.9944
▁via	-8.99582
▁questions	-8.99953
▁eu	-8.99996
▁décès	-9.0045
▁500	-9.0049
ure	-9.00523
▁con	-9.0053
▁passer	-9.00562
▁opérations	-9.00563
▁Du	-9.00614
▁›	-9.00619
ti	-9.00626
li	-9.00748
▁besoins	-9.00916
▁différents	-9.00993
▁07	-9.01006
▁Emmanuel	-9.01023
▁vol	-9.01232
▁minimum	-9.01279
ER	-9.01474
Europe	-9.01487
▁patrimoine	-9.01538
avoir	-9.01576
▁modèle	-9.01682
▁grands	-9.0173
▁perte	-9.01754
ia	-9.01984
▁met	-9.0203
▁source	-9.02097
▁permettre	-9.02224
▁intérêts	-9.0234
▁avis	-9.02389
ion	-9.02856
▁particulier	-9.03366
▁numéro	-9.03404
▁01	-9.03422
ri	-9.03426
▁chef	-9.03605
▁formation	-9.03726
▁08	-9.0373
▁important	-9.03823
▁jeune	-9.0386
▁sujet	-9.03875
▁commerce	-9.04216
▁placement	-9.04528
▁façon	-9.04533
▁ville	-9.04547
▁2017,	-9.04574
▁ça	-9.04595
ence	-9.04602
▁choisir	-9.04689
€	-9.04713
▁moyens	-9.04811
▁BNP	-9.05095
eurs	-9.05218
▁établissements	-9.05454
-19	-9.05543
▁&	-9.05605
▁02	-9.05842
▁présente	-9.05978
▁possibilité	-9.06137
▁centre	-9.06717
▁surtout	-9.06935
▁location	-9.06958
▁finances	-9.07056
▁maison	-9.0706
▁responsable	-9.07085
du	-9.0713
▁dernières	-9.07167
▁g	-9.07399
if	-9.07433
mo	-9.07453
▁rachat	-9.07744
ale	-9.07838
▁concerne	-9.0786
▁règles	-9.08072
▁campagne	-9.08175
▁Cela	-9.08441
origine	-9.08487
▁publié	-9.08489
▁tarifs	-9.08705
ier	-9.08856
▁acteurs	-9.08878
▁dû	-9.08895
▁derniers	-9.08922
qu	-9.09035
▁annuel	-9.09038
▁04	-9.09131
▁Tout	-9.09137
Union	-9.09149
était	-9.09271
▁règlement	-9.09303
▁crédits	-9.09354
▁Nouvelle	-9.09359
▁déclaré	-9.09439
tu	-9.09512
▁offres	-9.09528
▁seule	-9.09648
▁précise	-9.09822
▁Taux	-9.09834
▁Se	-9.09885
▁dix	-9.09938
▁véhicules	-9.10104
▁Pro	-9.10116
▁estime	-9.1018
▁Ainsi	-9.10246
X	-9.10255
aide	-9.1029
▁2017.	-9.10388
▁Or	-9.1045
▁change	-9.10642
ON	-9.10652
▁annonce	-9.10659
lo	-9.10919
occasion	-9.10924
ta	-9.11107
15	-9.11115
▁€.	-9.11154
▁DU	-9.11241
▁concurrence	-9.11376
sur	-9.11501
um	-9.1159
?	-9.1161
▁résultat	-9.11623
▁Mutuel	-9.11668
▁directement	-9.11749
▁permettant	-9.11905
▁direction	-9.11908
▁biens	-9.12047
▁mouvement	-9.12077
as	-9.12135
▁proches	-9.12393
50	-9.1241
▁souscription	-9.12755
art	-9.12897
▁performance	-9.13078
▁prend	-9.13087
▁valeurs	-9.13168
▁prime	-9.13261
▁action	-9.13283
Epargne	-9.13321
▁versement	-9.13386
▁professionnel	-9.13618
▁donner	-9.1395
▁autour	-9.1399
▁salarié	-9.13999
lé	-9.14138
▁région	-9.14196
▁devez	-9.14245
▁donne	-9.1442
▁rémunération	-9.14452
▁atteint	-9.14617
je	-9.14647
40	-9.14683
▁PME	-9.14745
▁lorsque	-9.14853
▁pratique	-9.14978
▁étant	-9.15417
▁2010	-9.15447
▁Compte	-9.15489
eux	-9.15779
▁fiscalité	-9.15821
che	-9.15964
na	-9.15995
▁habitation	-9.16105
▁liste	-9.16258
ga	-9.16387
gé	-9.16479
▁Qu	-9.16741
▁quoi	-9.16753
ul	-9.16775
▁toutefois	-9.16785
▁06	-9.16932
▁Paribas	-9.17028
▁changement	-9.17096
▁mode	-9.17259
10	-9.1727
▁aucun	-9.17298
▁là	-9.17528
▁communiqué	-9.17555
▁Code	-9.17557
▁Comme	-9.17566
▁#	-9.17583
▁Son	-9.17646
▁américaine	-9.17714
da	-9.17724
ue	-9.17903
▁concernant	-9.17912
▁construction	-9.17959
▁Nord	-9.1811
▁référence	-9.18223
▁©	-9.18332
▁Z	-9.18542
▁plutôt	-9.18584
ll	-9.18602
▁portail	-9.18711
objet	-9.18918
étranger	-9.18946
▁passé	-9.18968
»	-9.19023
▁réseaux	-9.1907
▁2018.	-9.19216
pe	-9.19274
▁cotisations	-9.193
▁laquelle	-9.19308
delà	-9.1938
gi	-9.194
▁travers	-9.19435
ix	-9.19519
ut	-9.19673
▁objectif	-9.19762
▁Dé	-9.19865
▁réalité	-9.20122
18	-9.20128
▁mondial	-9.20189
▁propriétaire	-9.20267
▁téléphone	-9.20375
▁plafond	-9.20469
▁vigueur	-9.20483
entre	-9.20742
ic	-9.21028
▁mondiale	-9.21064
▁jeu	-9.21119
▁compris	-9.21259
▁sortie	-9.21265
ry	-9.21269
▁demander	-9.21594
▁membres	-9.21869
▁réel	-9.21872
tre	-9.22024
ordre	-9.22102
▁obligations	-9.22103
▁pu	-9.22125
▁présidentielle	-9.22443
âge	-9.22515
CE	-9.22528
▁vidéo	-9.22768
▁sens	-9.22792
▁application	-9.22984
▁vote	-9.22989
EN	-9.23029
▁actifs	-9.2308
▁05	-9.23168
▁Philippe	-9.23277
nd	-9.23522
accès	-9.23562
▁maximum	-9.23585
be	-9.23898
entrée	-9.23957
▁premiers	-9.24007
▁revanche	-9.24218
▁financer	-9.24342
tion	-9.24378
sion	-9.2451
▁débat	-9.24517
▁placements	-9.2456
▁conseiller	-9.247
▁tard	-9.24753
▁partenaires	-9.24799
end	-9.24829
abord	-9.2488
utilisation	-9.24886
▁République	-9.24919
▁créer	-9.25002
▁loin	-9.25147
▁80	-9.25168
▁disposition	-9.2525
▁Boursorama	-9.25261
▁vu	-9.25271
▁responsabilité	-9.2543
▁Cour	-9.25432
▁semble	-9.25486
▁dire	-9.25499
▁ra	-9.25645
▁suis	-9.25668
▁position	-9.25671
ap	-9.25703
après	-9.25744
▁domicile	-9.26006
ve	-9.26078
ille	-9.26163
▁réaliser	-9.2626
▁majorité	-9.26272
▁complémentaire	-9.26468
▁appel	-9.26495
▁court	-9.26511
▁Assurances	-9.26586
▁Enfin	-9.26597
ancien	-9.26604
▁prêts	-9.26676
▁Alors	-9.26687
▁justice	-9.26742
▁aurait	-9.27
▁ensuite	-9.27075
▁prélèvements	-9.27104
tant	-9.27213
▁gamme	-9.27252
▁femmes	-9.27268
000	-9.27282
mer	-9.27335
▁r	-9.2764
▁LE	-9.27649
▁droite	-9.27765
▁Ro	-9.27789
▁compter	-9.28104
man	-9.28166
▁différentes	-9.28249
▁ménages	-9.28274
bi	-9.28342
do	-9.28363
▁ministère	-9.28431
▁commission	-9.28442
▁dimanche	-9.2848
▁réduire	-9.28603
▁doute	-9.28687
vis	-9.28701
▁étude	-9.28916
▁autant	-9.28925
AN	-9.28982
▁70	-9.28985
▁tendance	-9.2899
▁changer	-9.29079
▁prévoit	-9.29093
▁patron	-9.29185
▁avantages	-9.29193
▁meilleur	-9.29218
▁impôts	-9.29286
▁conseils	-9.29348
▁Pas	-9.29495
▁consommateurs	-9.29501
ais	-9.29618
▁Groupe	-9.29631
▁Pierre	-9.29636
".	-9.29657
▁succès	-9.29785
▁direct	-9.29834
▁PEA	-9.29834
▁Ré	-9.29834
per	-9.29936
▁celles	-9.29958
▁participation	-9.30114
▁milliard	-9.30117
▁unique	-9.30169
▁candidat	-9.30212
▁troisième	-9.30257
▁traitement	-9.30301
▁Votre	-9.30558
▁portefeuille	-9.30738
▁mi	-9.30831
▁lance	-9.30873
va	-9.30879
j	-9.30903
▁internet	-9.30905
▁LesFurets	-9.31025
▁chiffres	-9.31041
▁enfant	-9.31071
▁disponible	-9.31085
▁2016,	-9.31099
▁françaises	-9.31167
▁souhaite	-9.31219
▁présent	-9.31246
cé	-9.31307
▁nombreuses	-9.31335
▁200	-9.31415
▁ch	-9.3144
▁six	-9.3146
ailleurs	-9.31525
▁étaient	-9.31732
▁parmi	-9.31743
des	-9.31749
▁second	-9.31785
▁Mo	-9.31812
ton	-9.31889
▁aura	-9.31896
né	-9.31923
▁réponse	-9.31931
ver	-9.31953
▁Donald	-9.32034
▁mort	-9.32119
▁filiale	-9.32137
▁proposer	-9.32184
▁anti	-9.32184
ise	-9.32185
▁financières	-9.32301
pi	-9.32314
▁quel	-9.32337
▁dis	-9.32416
▁lancé	-9.32498
▁obtenir	-9.32613
chi	-9.3264
▁Vie	-9.32654
▁nécessaire	-9.3269
immobilier	-9.32695
▁décidé	-9.327
▁Brexit	-9.32765
▁relatif	-9.32817
all	-9.32888
▁retraites	-9.32913
▁existe	-9.32948
rie	-9.33146
▁supérieur	-9.33155
ois	-9.33353
industrie	-9.33672
▁note	-9.33727
▁rôle	-9.33806
▁retrait	-9.33938
actualité	-9.33979
Uni	-9.34012
▁rue	-9.34045
▁aucune	-9.34099
▁publiques	-9.34107
mé	-9.34116
▁analyse	-9.34178
▁CAC	-9.34192
ign	-9.34245
go	-9.34277
ba	-9.34417
▁fond	-9.34766
▁pourra	-9.34819
▁35	-9.34903
▁cher	-9.34986
▁actuellement	-9.35001
▁difficile	-9.35019
▁communication	-9.35061
▁quotidien	-9.35179
vi	-9.35288
ables	-9.35305
▁mes	-9.3532
même	-9.35371
▁assurances	-9.35651
mi	-9.35665
▁problème	-9.35713
▁(19	-9.35749
▁investissements	-9.35826
▁environ	-9.35831
▁avaient	-9.36082
▁politiques	-9.36111
▁guerre	-9.36125
ab	-9.36129
évolution	-9.3614
▁logements	-9.36207
▁prévu	-9.36241
▁ci	-9.36277
qui	-9.3648
▁somme	-9.366
▁technologie	-9.36643
▁dés	-9.3673
▁souscrire	-9.36875
▁soumis	-9.37023
acquisition	-9.37028
▁suivre	-9.3706
énergie	-9.37085
Assemblée	-9.37168
▁versements	-9.37203
▁dette	-9.3734
▁Apple	-9.37363
25	-9.37461
▁36	-9.37559
▁Nicolas	-9.37648
▁maladie	-9.37658
▁Echos	-9.37728
▁chinois	-9.37861
▁Vi	-9.37917
▁brut	-9.37969
▁procédure	-9.38022
▁œuvre	-9.38089
▁petit	-9.38099
pa	-9.38201
ux	-9.38289
particulièrement	-9.38295
▁Bank	-9.38354
▁capacité	-9.38376
▁gaz	-9.38444
▁but	-9.38543
▁davantage	-9.38591
▁éviter	-9.38599
▁juge	-9.38626
▁Tous	-9.38718
ins	-9.38939
▁gauche	-9.38964
▁Générale	-9.39004
istes	-9.3903
▁Que	-9.39205
▁Euro	-9.39208
▁Horaires	-9.39226
▁outre	-9.39355
17	-9.39386
IR	-9.39388
▁distribution	-9.39415
▁2015,	-9.395
▁ressources	-9.39514
...)	-9.39521
▁donné	-9.39528
▁Facebook	-9.39662
IS	-9.39738
▁propre	-9.39742
dire	-9.39982
▁transport	-9.40006
▁Mon	-9.40045
ven	-9.4008
heure	-9.40118
▁obligatoire	-9.40279
ten	-9.40311
▁sociales	-9.40401
imposition	-9.40414
▁charges	-9.40505
▁réserve	-9.40565
▁moto	-9.40615
▁article	-9.40678
▁résidence	-9.40687
objectif	-9.40699
▁chute	-9.40719
▁représente	-9.40916
ens	-9.40998
▁2016.	-9.41167
opération	-9.41193
Z	-9.41214
▁main	-9.41351
▁libre	-9.41541
0.000	-9.41608
▁tenu	-9.41738
▁fort	-9.419
▁bilan	-9.41932
▁jaunes	-9.42026
▁répondre	-9.42069
lin	-9.42091
▁pratiques	-9.4215
OR	-9.42159
▁premières	-9.42189
▁proche	-9.4223
▁condition	-9.42235
3%	-9.42262
▁confiance	-9.4232
▁soutien	-9.42323
6%	-9.42335
assureur	-9.42465
▁Cha	-9.42561
▁)	-9.42614
▁continue	-9.42735
▁rapidement	-9.42778
▁(1)	-9.42828
os	-9.42831
▁série	-9.42846
▁plein	-9.42959
▁formule	-9.42966
▁plateforme	-9.43173
▁U	-9.43174
▁civile	-9.43242
▁rendre	-9.43259
▁ouvert	-9.43272
ag	-9.43313
▁souligne	-9.43329
lle	-9.43386
▁parts	-9.43459
!	-9.43756
no	-9.43778
▁parti	-9.43787
▁permettent	-9.43822
▁Revenu	-9.43834
▁peine	-9.43869
▁faible	-9.43925
actifs	-9.43949
▁durant	-9.44118
▁plupart	-9.44222
▁suivi	-9.44285
▁géant	-9.4431
ly	-9.44351
▁partenariat	-9.44717
▁portant	-9.44766
ite	-9.44859
▁profil	-9.44861
▁marche	-9.4487
AL	-9.44895
▁semaines	-9.44983
▁parfois	-9.45027
établissement	-9.45144
▁décret	-9.45161
▁neuf	-9.45265
▁texte	-9.45265
▁support	-9.45363
▁principe	-9.45404
2%	-9.45501
ler	-9.45589
▁contact	-9.45608
▁SCPI	-9.45716
▁commun	-9.45878
▁pourraient	-9.4592
▁opération	-9.45922
▁bénéfice	-9.4597
▁90	-9.46093
ed	-9.46219
int	-9.46285
▁tu	-9.46551
▁privé	-9.46603
▁domaine	-9.4689
▁propres	-9.46979
▁développer	-9.47013
▁Bar	-9.47015
▁New	-9.47073
▁immobiliers	-9.47204
08	-9.47296
▁Ra	-9.47351
▁prestations	-9.47381
OL	-9.47414
▁augmentation	-9.47476
▁garde	-9.47513
▁chacun	-9.47526
▁respect	-9.47577
▁indique	-9.47596
▁accès	-9.47647
▁inter	-9.47668
▁moitié	-9.47669
indice	-9.47679
▁mandat	-9.47715
▁sites	-9.4801
mar	-9.48014
▁mensualités	-9.48052
om	-9.48083
▁“	-9.48091
▁assez	-9.48151
▁version	-9.48331
▁Autre	-9.48402
▁malgré	-9.48641
ay	-9.48679
iv	-9.48797
ig	-9.48911
ants	-9.48932
exercice	-9.48953
RE	-9.4897
▁élevé	-9.4898
▁Y	-9.49042
▁meilleure	-9.49045
▁gros	-9.49257
val	-9.49314
▁recours	-9.49322
▁catégorie	-9.49327
▁courant	-9.49544
13	-9.49589
▁page	-9.49619
▁vise	-9.49649
▁présenté	-9.49695
▁devenir	-9.49808
▁Frais	-9.49868
▁million	-9.4998
14	-9.5001
tr	-9.50017
▁Sécurité	-9.50191
vo	-9.50301
▁télé	-9.5039
▁Bo	-9.50413
actions	-9.50433
▁reçu	-9.50572
▁ST	-9.50591
▁prochain	-9.5064
▁nature	-9.50645
der	-9.50715
▁objets	-9.50759
lant	-9.50759
France	-9.50793
▁Notre	-9.5083
▁britannique	-9.50942
oc	-9.51039
▁aller	-9.51069
ke	-9.51125
▁Epargne	-9.51183
▁fixé	-9.51248
mp	-9.51256
iser	-9.51257
▁ici	-9.51261
IA	-9.51291
▁principale	-9.51314
▁conjoint	-9.51425
▁soient	-9.51511
▁perdu	-9.51528
▁importante	-9.51555
été	-9.51666
▁siège	-9.51772
▁Parlement	-9.5187
ante	-9.51872
▁Premier	-9.51876
▁collecte	-9.51905
21	-9.52117
▁annuelle	-9.52155
état	-9.52178
9%	-9.52194
▁2009	-9.52207
/02	-9.52211
▁relation	-9.52335
▁loyers	-9.52362
▁demandé	-9.52416
analyse	-9.52482
▁Royaume	-9.52603
▁É	-9.52636
▁route	-9.52679
▁assureurs	-9.52707
ub	-9.52734
▁venir	-9.52864
▁aider	-9.52914
▁pourquoi	-9.52994
OU	-9.52998
▁documents	-9.53009
▁300	-9.53018
▁Ar	-9.53064
▁pension	-9.53092
▁journée	-9.53108
▁couple	-9.53275
▁européennes	-9.53276
▁rendu	-9.53504
forme	-9.53526
▁Val	-9.53557
▁assure	-9.53562
▁objectifs	-9.53697
▁lequel	-9.53704
▁signé	-9.53708
▁Pourquoi	-9.5376
▁population	-9.53769
▁éléments	-9.53812
exploitation	-9.5384
▁juste	-9.53878
▁49	-9.539
fi	-9.53901
▁villes	-9.5393
05	-9.53932
35	-9.53948
État	-9.53964
▁publication	-9.53987
▁profiter	-9.53991
▁investissement	-9.54041
▁spécialiste	-9.54134
▁indiqué	-9.54164
▁articles	-9.54169
▁terrain	-9.54213
▁défaut	-9.54274
res	-9.54319
▁députés	-9.54324
agence	-9.5439
élection	-9.54399
▁SA	-9.5459
▁large	-9.54595
association	-9.54713
▁PDG	-9.5498
▁aide	-9.55116
▁réalisé	-9.55143
▁futur	-9.55172
▁centrale	-9.5518
▁locaux	-9.55193
://	-9.55199
▁historique	-9.55285
▁longue	-9.55307
▁finance	-9.55404
CH	-9.55404
▁Grand	-9.55447
16	-9.55561
ène	-9.55633
▁semestre	-9.55637
11	-9.55664
▁uniquement	-9.55738
▁45	-9.55876
ateur	-9.55942
ca	-9.55974
▁Postale	-9.56022
1%	-9.56087
▁(+	-9.56155
▁progression	-9.56189
▁Mar	-9.56204
▁X	-9.56221
IT	-9.564
▁po	-9.56404
▁ancien	-9.56407
▁manque	-9.56416
▁dirigeants	-9.5651
▁état	-9.56587
▁fa	-9.56626
8%	-9.56649
▁document	-9.56654
▁principaux	-9.56657
26	-9.56777
AT	-9.56904
od	-9.56997
innovation	-9.57026
ions	-9.57186
▁automobile	-9.57211
▁fonctionnement	-9.57308
▁Populaire	-9.57382
▁Usine	-9.57429
▁Sud	-9.5743
port	-9.57483
▁commercial	-9.57493
▁compagnie	-9.57539
▁dispose	-9.57565
lu	-9.57581
isé	-9.5759
▁0	-9.57614
▁Quand	-9.57617
values	-9.5764
son	-9.5767
▁performances	-9.57686
nel	-9.57701
▁vite	-9.57754
▁er	-9.57765
▁courrier	-9.57845
▁livre	-9.57887
▁européens	-9.57967
▁",	-9.58047
▁étudiants	-9.58052
▁pourtant	-9.58066
▁voie	-9.58092
7%	-9.58191
▁succession	-9.58202
avenir	-9.58207
▁connaître	-9.58218
▁CA	-9.58372
▁parce	-9.58386
▁regard	-9.58437
▁rapide	-9.58447
ière	-9.58576
▁restent	-9.58594
▁Londres	-9.58659
▁voyage	-9.58735
▁correspondance	-9.58759
▁termes	-9.58787
ts	-9.58814
4%	-9.58858
▁parents	-9.5887
▁voire	-9.5888
▁protéger	-9.58938
▁devraient	-9.58982
▁cartes	-9.59032
▁conférence	-9.59138
pro	-9.59201
▁2014,	-9.59238
▁technologies	-9.59265
land	-9.59332
▁signature	-9.59359
▁montre	-9.59503
▁utiliser	-9.59523
ph	-9.59612
▁75	-9.59618
▁voix	-9.59687
▁Orange	-9.59795
▁autorités	-9.59905
▁Parution	-9.59932
24	-9.60041
▁faveur	-9.60044
▁cabinet	-9.60129
▁*	-9.60149
▁obtenu	-9.60196
▁lancement	-9.60198
▁Po	-9.60342
ka	-9.6041
lon	-9.60418
▁quelque	-9.60428
▁contexte	-9.60448
▁internationale	-9.60471
▁2015.	-9.60524
io	-9.6054
▁soir	-9.6056
▁durable	-9.60626
ES	-9.60693
tte	-9.60765
▁tel	-9.60778
▁comp	-9.60848
12	-9.60925
▁présence	-9.60927
▁déc	-9.61042
▁sûr	-9.61044
mb	-9.61184
▁lancer	-9.61321
▁souhaitez	-9.61324
▁Cours	-9.61345
équipe	-9.61381
▁choisi	-9.61447
▁gérer	-9.61475
▁Ne	-9.6154
éri	-9.61608
▁t	-9.61608
▁bénéficiaire	-9.61616
▁réduit	-9.61698
▁assuré	-9.61788
ations	-9.61868
▁investir	-9.61895
▁cependant	-9.61899
▁créé	-9.61998
étude	-9.62015
CI	-9.62064
▁taille	-9.62098
▁connu	-9.62112
▁couverture	-9.62142
ssent	-9.62143
▁supplémentaires	-9.62168
▁pièces	-9.6222
SA	-9.62326
▁énergétique	-9.62343
▁chargé	-9.6246
AS	-9.62463
teur	-9.62512
▁mission	-9.62556
▁certain	-9.62748
▁rencontre	-9.62779
▁groupes	-9.62837
▁détail	-9.62883
▁cotisation	-9.62944
▁lettre	-9.63024
▁commerciale	-9.63128
tent	-9.63161
▁liés	-9.63232
▁Michel	-9.63288
appel	-9.63337
▁An	-9.63382
▁locataire	-9.63422
ché	-9.63425
▁conséquences	-9.63487
▁commune	-9.63493
▁transformation	-9.63508
▁suivant	-9.63512
▁Bien	-9.63549
▁hauteur	-9.63558
▁lutte	-9.63782
▁devient	-9.63885
IC	-9.63912
▁48	-9.63916
09	-9.63955
idée	-9.63997
ville	-9.6432
iti	-9.64434
aires	-9.64443
▁voit	-9.64487
iers	-9.64569
ang	-9.64581
▁passage	-9.64641
▁coûts	-9.64657
▁2008	-9.64783
▁ta	-9.64791
vent	-9.64975
06	-9.64989
lement	-9.6503
▁65	-9.6514
▁propos	-9.6515
ger	-9.65153
▁nouvel	-9.65197
▁statut	-9.65216
annonce	-9.65275
▁débiteur	-9.65421
▁phase	-9.65493
inflation	-9.65606
▁puisque	-9.65616
image	-9.65662
▁enquête	-9.65755
▁figure	-9.65816
▁candidats	-9.65819
▁fiscales	-9.65841
▁Direct	-9.6589
tes	-9.65921
▁distance	-9.66028
▁assurer	-9.66059
▁Pen	-9.66108
▁agences	-9.6615
use	-9.66151
/01	-9.66199
▁transactions	-9.66218
ud	-9.6627
▁Avis	-9.66293
▁So	-9.66403
▁67	-9.66458
▁juridique	-9.66771
▁reprise	-9.66776
TE	-9.668
vé	-9.66962
▁critères	-9.66967
euse	-9.66979
▁dommages	-9.67053
▁propriété	-9.67102
▁Est	-9.67107
▁Di	-9.67122
▁poste	-9.67218
90	-9.67254
▁circonscription	-9.67399
▁études	-9.67418
organisation	-9.67423
▁Bruxelles	-9.67437
▁quelle	-9.67437
▁actionnaires	-9.67477
▁salaire	-9.67503
▁international	-9.67607
isant	-9.67627
tique	-9.67651
tal	-9.67655
▁trouve	-9.67678
▁réglementation	-9.6773
▁affaires	-9.6774
▁rester	-9.67745
▁>>	-9.67754
▁Hollande	-9.67856
”	-9.67912
▁vraiment	-9.67923
AM	-9.68039
▁impact	-9.68139
▁%.	-9.68143
ron	-9.68196
▁lorsqu	-9.68382
ni	-9.68406
▁Qui	-9.68422
histoire	-9.68485
▁chèque	-9.68501
cher	-9.68523
▁pourront	-9.68531
▁disponibles	-9.68669
▁chose	-9.68672
▁41	-9.6881
▁micro	-9.68894
▁profit	-9.69043
▁petite	-9.69125
rou	-9.69154
03	-9.69245
car	-9.69624
AC	-9.69672
▁généralement	-9.69782
AR	-9.69821
▁minutes	-9.6983
▁per	-9.69891
▁vert	-9.70048
▁AG	-9.70066
▁(1	-9.70097
▁Page	-9.70155
ho	-9.70158
▁classe	-9.70185
▁devra	-9.70285
▁solde	-9.70419
▁sou	-9.70454
▁élections	-9.70501
▁pression	-9.7057
▁atteindre	-9.70731
&	-9.70757
ien	-9.70898
▁véritable	-9.70996
tation	-9.71023
▁Ha	-9.7118
▁équipe	-9.71224
▁emploi	-9.71255
_	-9.71357
intelligence	-9.71437
▁marge	-9.71646
▁comprendre	-9.71755
▁maintenant	-9.71779
▁Même	-9.71782
habitation	-9.71821
▁Renault	-9.71857
▁retard	-9.71869
▁force	-9.71895
lan	-9.71934
▁smartphone	-9.71998
▁Résultats	-9.72088
mand	-9.72093
▁petits	-9.7224
université	-9.72318
▁voitures	-9.72446
▁ouvrir	-9.72469
▁chômage	-9.72497
▁Conseils	-9.72515
▁secrétaire	-9.72564
▁Cet	-9.72639
gue	-9.72723
nant	-9.72736
▁record	-9.72746
▁artificielle	-9.7277
si	-9.72832
▁collectif	-9.72885
▁travailler	-9.72896
▁accident	-9.72908
emprunt	-9.72924
homme	-9.72943
▁effectuer	-9.72958
▁quant	-9.72975
▁double	-9.7306
▁vrai	-9.73109
▁option	-9.73155
▁leader	-9.73164
▁gagner	-9.73219
▁TVA	-9.73438
▁vendre	-9.7347
▁achats	-9.73525
nes	-9.7361
▁électronique	-9.73639
▁Deux	-9.73774
▁établissement	-9.73786
ette	-9.73788
▁train	-9.73825
emprunteur	-9.73835
▁Zone	-9.73837
▁mobilité	-9.73843
▁totale	-9.73933
▁El	-9.74032
élève	-9.74038
▁rendez	-9.74112
▁découvert	-9.74139
▁CIC	-9.74185
▁match	-9.74234
ive	-9.74306
▁Avant	-9.74316
▁clôture	-9.74319
▁techniques	-9.74353
exécution	-9.74428
▁2014.	-9.7444
▁fil	-9.74574
▁utilisateurs	-9.74626
02	-9.74629
▁devenu	-9.74642
▁Quel	-9.74648
▁supports	-9.74753
ès	-9.74767
▁Aujourd	-9.74822
▁différence	-9.74908
▁transfert	-9.74921
80	-9.74937
▁principal	-9.74954
LE	-9.75016
▁Ko	-9.75097
▁visite	-9.75132
▁modalités	-9.75162
▁vis	-9.75174
▁notes	-9.75176
▁espace	-9.75204
IE	-9.75207
▁convention	-9.7529
▁Elles	-9.75298
▁Fa	-9.75349
19	-9.75456
▁dynamique	-9.75468
ris	-9.75471
tin	-9.75477
▁formulaire	-9.75522
▁hommes	-9.75537
▁continuer	-9.75671
▁Finances	-9.75671
▁proposé	-9.75674
▁meilleurs	-9.7573
60	-9.75732
▁37	-9.75807
jo	-9.75847
▁facture	-9.7588
ire	-9.75893
▁dépôt	-9.75901
▁territoire	-9.75963
▁34	-9.75976
31	-9.75979
absence	-9.75987
▁Amazon	-9.76073
aud	-9.76079
▁2019.	-9.76161
▁32	-9.76237
usage	-9.7628
▁remise	-9.76281
▁Placements	-9.76316
▁nécessaires	-9.76396
▁largement	-9.76411
▁fiscaux	-9.76472
▁relations	-9.76671
▁2013,	-9.76687
▁épargnants	-9.76721
▁Ch	-9.76815
▁judiciaire	-9.76868
▁Actualités	-9.76916
▁Visa	-9.76931
▁complémentaires	-9.76975
▁affiche	-9.76992
▁systèmes	-9.76996
▁difficultés	-9.77036
23	-9.77058
ssant	-9.77083
*	-9.77086
▁acheter	-9.77097
▁police	-9.77108
▁Toute	-9.77146
▁mutuelle	-9.77184
▁outils	-9.77194
▁négociations	-9.772
lor	-9.77205
▁assureur	-9.77253
▁recul	-9.77401
▁associations	-9.77419
mon	-9.77467
▁port	-9.77552
▁rouge	-9.77616
▁ministères	-9.77656
ér	-9.77665
▁sinistre	-9.77802
▁plate	-9.77835
▁rappelle	-9.7787
ég	-9.77897
▁150	-9.77906
our	-9.77911
▁preuve	-9.78096
école	-9.78132
01	-9.78133
▁bénéfices	-9.78161
▁retraités	-9.78176
▁carrière	-9.78177
▁déficit	-9.78193
▁York	-9.78212
ade	-9.78215
ide	-9.78293
▁allemand	-9.78323
ction	-9.78362
▁51	-9.78417
impact	-9.78479
▁agence	-9.7853
▁démarche	-9.78535
▁augmenter	-9.78738
▁CNP	-9.78746
pt	-9.78757
▁Lyon	-9.788
▁Centre	-9.78863
É	-9.78891
assuré	-9.78892
▁confirme	-9.78922
▁défense	-9.78922
▁Sans	-9.78939
affaire	-9.78984
▁38	-9.78988
▁nette	-9.79017
atrice	-9.79051
▁complète	-9.7906
▁FR	-9.79265
▁pétrole	-9.79361
▁électrique	-9.79381
▁monétaire	-9.79392
▁rente	-9.79398
22	-9.79427
006	-9.79493
▁connectés	-9.7952
▁supplémentaire	-9.79536
environnement	-9.79537
▁correspond	-9.79544
▁trans	-9.79599
ration	-9.79613
dessus	-9.79707
and	-9.79741
tt	-9.79745
enquête	-9.79815
▁agents	-9.79926
45	-9.79967
▁Allemagne	-9.80038
▁Air	-9.80059
assurer	-9.80065
▁AXA	-9.8021
▁mot	-9.80271
po	-9.80299
▁emprunté	-9.80376
▁i	-9.80435
▁membre	-9.80597
07	-9.80605
▁CO	-9.80714
04	-9.80798
▁Graphique	-9.80818
▁unités	-9.80896
▁petites	-9.80984
▁Russie	-9.80992
▁10%	-9.81088
▁matin	-9.81134
▁Arrêté	-9.81183
▁perd	-9.81279
voir	-9.81492
avis	-9.8153
▁soins	-9.81537
▁Pi	-9.81572
▁Microsoft	-9.81718
▁Ho	-9.81777
adresse	-9.81783
▁seuil	-9.81815
▁enfin	-9.81936
▁partage	-9.81997
▁pensions	-9.82
▁global	-9.82023
▁cession	-9.82058
▁­	-9.82074
▁tandis	-9.82119
▁volonté	-9.82145
▁présenter	-9.8218
28	-9.82185
▁département	-9.82214
▁Ex	-9.82237
▁courtier	-9.82245
▁facultative	-9.82271
▁renforcer	-9.82286
FI	-9.8229
▁39	-9.82325
▁pi	-9.82396
▁correspondant	-9.82403
▁Nos	-9.82431
▁monnaie	-9.82464
è	-9.82466
autant	-9.82527
pé	-9.82563
▁affirme	-9.8261
▁Wall	-9.82655
▁présentation	-9.82695
em	-9.8273
▁liberté	-9.8284
▁Gestion	-9.82866
70	-9.82872
▁gilets	-9.82873
▁classique	-9.82919
/2	-9.82935
34	-9.82983
▁fusion	-9.82992
▁potentiel	-9.83229
▁économies	-9.83231
électricité	-9.8326
▁Immobilier	-9.8326
▁augmenté	-9.8327
▁bons	-9.83314
▁Gu	-9.83414
ienne	-9.83474
33	-9.83491
▁faisant	-9.83743
ki	-9.83769
▁conduite	-9.83782
▁précédent	-9.83833
▁ensemble	-9.8388
accident	-9.83901
▁annuels	-9.83931
▁souscrit	-9.83962
>	-9.84042
gie	-9.84046
▁Ba	-9.84256
▁constructeur	-9.84264
▁tarif	-9.84272
▁BFM	-9.84273
▁Parmi	-9.8431
▁sélection	-9.84313
▁loyer	-9.84403
br	-9.84425
▁rentabilité	-9.84529
▁raisons	-9.84585
+	-9.84587
avance	-9.84707
▁table	-9.84773
▁salariale	-9.84813
▁Lors	-9.84823
▁relative	-9.84868
27	-9.8491
▁réussi	-9.84941
applique	-9.84947
▁inférieur	-9.84989
▁dépend	-9.84998
▁mêmes	-9.85001
▁livrets	-9.85119
▁rec	-9.8519
▁États	-9.85223
▁veulent	-9.8528
▁comité	-9.85317
▁physique	-9.85332
▁concernés	-9.85353
▁déclarer	-9.8539
ow	-9.85492
alité	-9.85534
▁fi	-9.85549
▁Go	-9.85639
▁emprunteur	-9.85671
▁He	-9.85672
▁secteurs	-9.8571
▁data	-9.85745
▁ouvre	-9.85765
▁Finance	-9.85776
▁sol	-9.85827
▁poursuit	-9.85828
▁pied	-9.85836
▁réception	-9.85876
▁2007	-9.85882
hi	-9.85884
▁sortir	-9.85935
La	-9.8601
nc	-9.86099
▁spécialisée	-9.86105
▁automatique	-9.86111
▁dispositions	-9.86117
▁contraire	-9.86124
gre	-9.86132
▁papier	-9.86153
▁PLACE	-9.86236
▁simplement	-9.86237
▁trésorerie	-9.86248
avait	-9.8625
air	-9.86327
▁paiements	-9.86395
▁constitue	-9.86421
▁organismes	-9.8649
opposition	-9.86543
ax	-9.86555
▁bureau	-9.86567
▁cap	-9.86598
▁américains	-9.86608
▁proposent	-9.86611
59	-9.8665
▁Ou	-9.8675
itaire	-9.86751
▁permettra	-9.86816
▁fortement	-9.86939
▁sauf	-9.87015
▁Santé	-9.87018
▁conducteur	-9.87041
▁lien	-9.87045
▁AVENUE	-9.87184
▁tôt	-9.87188
gouv	-9.87213
▁supérieure	-9.8723
▁Vidéo	-9.87294
▁2000	-9.87338
▁tribunal	-9.87343
▁film	-9.87403
▁génération	-9.87437
▁Street	-9.87449
▁presque	-9.87489
▁telle	-9.87511
▁cœur	-9.87555
ole	-9.87628
▁(2	-9.87636
▁jouer	-9.87669
▁blog	-9.87701
▁Découvrez	-9.87702
▁ad	-9.87708
mat	-9.87708
▁puissance	-9.87782
▁active	-9.8779
▁partenaire	-9.87795
isée	-9.87873
▁classement	-9.87919
▁utilisé	-9.87964
▁Plan	-9.87977
▁commande	-9.87978
euro	-9.88014
▁franchise	-9.88028
ET	-9.881
▁priorité	-9.88189
▁modèles	-9.8823
DE	-9.88252
▁propriétaires	-9.88286
▁liées	-9.88329
▁opérateurs	-9.88342
▁fondateur	-9.88345
▁longtemps	-9.88362
▁solidaire	-9.88383
▁Mont	-9.88469
▁démarches	-9.88607
▁Certains	-9.88665
hé	-9.88682
▁prévue	-9.88742
▁efficace	-9.88802
▁zones	-9.88805
▁2012,	-9.8881
▁victoire	-9.8884
▁poids	-9.88841
▁russe	-9.88857
ox	-9.88859
▁processus	-9.88883
▁régulièrement	-9.88885
part	-9.88898
▁sport	-9.88904
▁PEL	-9.88928
iques	-9.88966
▁Na	-9.88973
▁expérience	-9.88978
▁44	-9.89053
▁clientèle	-9.89054
let	-9.89092
▁favorable	-9.89112
▁St	-9.89114
▁Ad	-9.89163
▁bout	-9.89211
▁Tour	-9.8924
▁populaire	-9.89286
▁capitalisation	-9.89295
▁Syrie	-9.893
accueil	-9.89382
éducation	-9.89394
▁commerciales	-9.89397
▁étape	-9.89419
▁conclu	-9.89452
▁Ga	-9.89461
IL	-9.89543
▁bou	-9.89561
▁ME	-9.89621
▁tr	-9.89702
▁barème	-9.89728
▁nuit	-9.89748
▁signe	-9.89813
▁Cor	-9.89884
▁relevé	-9.89952
▁outil	-9.89979
▁industriels	-9.90036
▁transition	-9.90049
▁capitale	-9.90062
▁titulaire	-9.90141
enne	-9.90174
;	-9.90249
▁contribuables	-9.90257
▁Toutefois	-9.90279
▁com	-9.90281
▁pourrez	-9.90321
CA	-9.9044
29	-9.90447
In	-9.90455
▁parle	-9.90485
OM	-9.90506
▁message	-9.9052
▁42	-9.9056
avantage	-9.90583
▁médias	-9.90591
▁seconde	-9.90622
▁livraison	-9.90696
su	-9.90744
▁revient	-9.90745
▁suffit	-9.90881
entreprises	-9.90911
▁investi	-9.90945
▁surface	-9.91006
▁personnelles	-9.91058
▁dirigeant	-9.91084
▁jeux	-9.91118
▁proposition	-9.91151
▁gratuit	-9.91161
▁55	-9.91183
app	-9.91212
▁communauté	-9.91268
av	-9.91311
▁Fonds	-9.91325
▁moi	-9.91354
▁équipes	-9.91471
▁Japon	-9.91477
▁attentes	-9.91481
▁Ca	-9.91488
▁2019,	-9.9154
Le	-9.91596
▁moteur	-9.91633
▁virtuelle	-9.91652
▁saison	-9.91683
▁constat	-9.91694
▁siècle	-9.9171
▁impôt	-9.91797
tel	-9.91827
▁ren	-9.91842
▁métiers	-9.919
▁33	-9.91921
▁développé	-9.9195
ist	-9.92023
▁local	-9.92041
▁vacances	-9.92044
▁principalement	-9.92093
▁Ja	-9.92148
▁champ	-9.92189
▁répond	-9.92217
▁contenu	-9.92248
▁victimes	-9.92344
▁multi	-9.92359
ç	-9.92421
▁délais	-9.92431
▁Quelles	-9.92536
inter	-9.92568
32	-9.92591
▁types	-9.92601
▁Chaque	-9.92683
▁culture	-9.92706
▁2006	-9.92877
▁définition	-9.92916
47	-9.92989
tro	-9.9303
▁menace	-9.93036
UR	-9.93057
Allemagne	-9.93064
▁réunion	-9.93089
▁Prêt	-9.9311
▁retrouver	-9.93112
▁bénéficiaires	-9.93114
serv	-9.93137
iens	-9.93195
▁Ka	-9.9324
▁TAEG	-9.93261
▁quatrième	-9.93261
▁nord	-9.93315
▁conduire	-9.93363
▁virement	-9.93476
échange	-9.93479
▁principales	-9.93532
▁prochaine	-9.93592
▁solidarité	-9.93628
▁Tra	-9.93668
▁procès	-9.93671
▁débit	-9.93689
▁caractère	-9.93727
▁suppression	-9.93869
▁Samsung	-9.93883
▁EUR	-9.93915
▁prises	-9.93915
form	-9.93958
public	-9.93973
▁bio	-9.93974
IF	-9.94105
▁Bon	-9.94144
▁rubrique	-9.94152
▁rembourser	-9.94166
espace	-9.94194
ales	-9.94207
▁forfaitaire	-9.94213
non	-9.9426
▁400	-9.94363
▁conserver	-9.94371
▁industrielle	-9.94397
voi	-9.94405
▁parcours	-9.94417
▁gens	-9.94458
▁cible	-9.94466
▁fournir	-9.94466
▁légal	-9.94508
▁précisé	-9.94591
▁guide	-9.94623
▁SUR	-9.94655
▁dividende	-9.94664
PA	-9.94693
▁Paul	-9.94771
▁Fédération	-9.94794
▁noter	-9.94809
▁respecter	-9.94842
▁régimes	-9.94853
▁porter	-9.94869
▁demi	-9.94924
Assurance	-9.95008
nom	-9.95023
39	-9.95044
can	-9.9505
▁coûte	-9.95057
ification	-9.95094
NE	-9.951
42	-9.95107
Elysée	-9.95109
▁Post	-9.95113
▁spécifique	-9.95128
▁vitesse	-9.95162
▁arrive	-9.95191
▁actuelle	-9.95222
▁1,5	-9.95262
▁privée	-9.95281
▁collective	-9.95339
▁fraude	-9.95448
▁Fortuneo	-9.95454
fa	-9.95483
▁ouverte	-9.95506
▁vision	-9.95523
▁communes	-9.95555
▁intérêt	-9.95565
▁aides	-9.9558
▁tient	-9.9559
▁Bou	-9.95611
▁climat	-9.95651
▁problèmes	-9.9574
▁Be	-9.95781
nement	-9.95799
▁options	-9.95825
▁Group	-9.95853
▁publicité	-9.95874
41	-9.95877
ty	-9.95883
▁2013.	-9.95915
net	-9.9596
▁Entre	-9.95966
ko	-9.95995
▁Carte	-9.96072
▁lire	-9.96077
▁révolution	-9.96093
▁Ta	-9.96128
▁AFP	-9.96142
▁développe	-9.96307
▁femme	-9.96435
▁séjour	-9.96452
▁forces	-9.96467
US	-9.96476
rant	-9.96496
▁salaires	-9.96517
bo	-9.96546
augmentation	-9.96552
▁appelé	-9.96552
▁surprise	-9.96554
erie	-9.96602
▁Services	-9.96654
▁club	-9.96674
lis	-9.96676
▁vérifier	-9.96683
él	-9.96697
▁68	-9.96703
arrivée	-9.9671
▁haute	-9.96754
...).	-9.96766
▁construire	-9.96977
▁Logement	-9.97143
▁consiste	-9.97147
ind	-9.97148
▁totalement	-9.97151
▁Caisses	-9.9718
▁imp	-9.9723
▁stratégique	-9.97241
▁600	-9.97256
née	-9.97282
»,	-9.97332
▁écrit	-9.97351
EL	-9.9742
▁enregistré	-9.97439
ateurs	-9.97469
▁pouvant	-9.97506
▁100%	-9.97513
▁porté	-9.97581
▁tranche	-9.97653
▁effets	-9.97659
▁(...)	-9.97661
▁bonnes	-9.97683
▁Ver	-9.97689
▁seraient	-9.97692
▁Point	-9.97713
option	-9.97726
▁LES	-9.97835
RI	-9.97983
▁Jo	-9.98075
abilité	-9.98162
▁seuls	-9.98217
▁pose	-9.98244
identité	-9.98245
ari	-9.9825
PI	-9.9825
▁sept	-9.98312
▁vaut	-9.98326
▁Ab	-9.98334
▁experts	-9.98353
▁tenue	-9.98393
▁accessible	-9.984
▁visant	-9.98411
▁bénéficie	-9.98442
▁officiel	-9.98464
▁Aviva	-9.98491
ISF	-9.98505
▁Auto	-9.98541
▁maire	-9.98639
▁72	-9.98763
▁parler	-9.98833
issue	-9.98842
▁Empruntis	-9.98845
▁62	-9.989
▁Groupama	-9.98926
▁tels	-9.98952
▁Sénat	-9.99033
gu	-9.99035
▁ING	-9.9907
▁actuel	-9.99102
▁Directeur	-9.9913
▁Laurent	-9.99135
▁contribution	-9.99179
▁bord	-9.99217
500	-9.9923
▁détention	-9.9926
▁Quels	-9.99273
OP	-9.99277
▁super	-9.99277
▁consulter	-9.9938
ob	-9.99428
46	-9.99588
▁assurés	-9.99664
éré	-9.99695
ha	-9.99731
employeur	-9.99734
dic	-9.99747
▁sud	-9.99771
[...]	-9.99795
▁interne	-9.99796
▁connaissance	-9.99825
▁analystes	-9.99901
oir	-9.99953
dit	-10.0006
AP	-10.0007
so	-10.0016
▁Capital	-10.0019
36	-10.0021
▁Lo	-10.0025
▁journal	-10.0037
44	-10.0037
auto	-10.0042
effet	-10.0043
▁rend	-10.0044
organisme	-10.0046
▁Marie	-10.0049
▁digitale	-10.0053
nier	-10.0059
▁régions	-10.006
▁85	-10.0069
assistance	-10.0079
▁avance	-10.008
▁dédié	-10.0082
gan	-10.0085
▁fer	-10.0085
38	-10.0088
▁civil	-10.009
échéance	-10.0092
▁dédiée	-10.0096
pour	-10.0101
▁dépôts	-10.0107
▁marques	-10.0118
▁immobilière	-10.0121
▁structure	-10.0123
▁homme	-10.0126
▁test	-10.0129
▁Ni	-10.0129
▁équipements	-10.0147
▁Washington	-10.0147
▁sorte	-10.015
▁Quelle	-10.0165
▁Allianz	-10.0166
▁Me	-10.0171
▁niveaux	-10.0173
▁limiter	-10.018
▁fo	-10.0181
▁finalement	-10.0183
▁intéressant	-10.0187
PL	-10.0191
▁spécial	-10.0192
▁parties	-10.0196
▁propositions	-10.0199
▁vingt	-10.0199
▁pousse	-10.02
▁capitaux	-10.0204
opérateur	-10.0205
▁Bruno	-10.0206
Institut	-10.0208
▁entendu	-10.021
▁v	-10.0213
ture	-10.0213
▁rendements	-10.0221
37	-10.0222
urgence	-10.0226
▁établi	-10.0232
▁autorisé	-10.0236
▁course	-10.024
lot	-10.0241
▁Retraite	-10.0241
▁récemment	-10.0247
▁matériel	-10.0248
▁ba	-10.025
avez	-10.0251
▁faciliter	-10.0251
▁mobiles	-10.0256
arrêt	-10.0259
▁Grâce	-10.0267
▁Mi	-10.0275
▁versées	-10.0275
CHE	-10.0275
▁laisser	-10.0278
▁envoyé	-10.0279
▁majeur	-10.0287
▁Voici	-10.0289
▁représentent	-10.0292
pos	-10.0293
▁collectivités	-10.0298
onne	-10.0302
▁Cap	-10.0305
75	-10.0312
UN	-10.0313
▁avantage	-10.0324
▁cherche	-10.0325
▁discours	-10.0329
enfant	-10.033
▁su	-10.0337
cha	-10.0342
ative	-10.0342
▁climatique	-10.0342
▁finale	-10.0347
obligation	-10.0348
▁facile	-10.0351
▁rebond	-10.036
▁web	-10.0361
▁réalisée	-10.0371
▁étrangers	-10.0372
▁préparer	-10.0373
▁applications	-10.0375
▁estimé	-10.0375
cul	-10.0376
▁pense	-10.0387
▁huit	-10.0395
▁informatique	-10.0399
▁décisions	-10.0401
ô	-10.0401
▁bientôt	-10.0412
informations	-10.0417
▁rythme	-10.0419
▁certificat	-10.0429
▁The	-10.0433
▁proximité	-10.0439
▁no	-10.0445
▁prévention	-10.0445
ane	-10.0447
▁élevés	-10.0451
▁consommateur	-10.0452
▁chaîne	-10.0455
mul	-10.0457
▁maintien	-10.0459
▁considéré	-10.0462
▁rappel	-10.0466
▁San	-10.0469
▁lieux	-10.0469
▁Cercle	-10.0473
▁temporaire	-10.0474
▁entend	-10.0478
enseignement	-10.0489
ck	-10.0494
▁américaines	-10.0499
émission	-10.0499
▁vit	-10.051
▁foyer	-10.0511
line	-10.0512
inc	-10.0515
▁post	-10.0518
▁Bercy	-10.0518
▁Marine	-10.0518
▁Loi	-10.052
▁constituer	-10.0521
▁comparer	-10.0523
AFP	-10.0523
▁to	-10.0526
â	-10.0531
▁Fin	-10.0544
ssé	-10.0545
43	-10.0546
▁professeur	-10.0547
▁Cependant	-10.0553
ières	-10.0554
▁dispositifs	-10.0557
expérience	-10.0564
▁forfait	-10.0567
▁trouvé	-10.0568
uff	-10.0568
▁photo	-10.0571
▁garanti	-10.0572
▁achat	-10.0573
▁logiciel	-10.0574
éni	-10.0587
lier	-10.0595
▁faites	-10.0601
▁Service	-10.0604
▁Malgré	-10.0604
▁Lorsque	-10.0609
issant	-10.0618
▁spécifiques	-10.0624
▁édition	-10.0625
▁directive	-10.0625
▁BCE	-10.0634
▁Brésil	-10.0643
99	-10.0645
▁améliorer	-10.0652
▁fonctionne	-10.0655
▁Pa	-10.0656
▁Ligue	-10.0657
▁milliers	-10.0662
57	-10.0668
▁Revue	-10.0668
▁levée	-10.0669
▁final	-10.0678
▁vendu	-10.0687
ren	-10.0688
▁représentant	-10.069
venant	-10.069
▁comprend	-10.0693
▁Marseille	-10.0696
dis	-10.0697
▁graphique	-10.07
ak	-10.0701
▁faudra	-10.0703
▁Prix	-10.071
sti	-10.071
▁derrière	-10.071
▁EN	-10.0713
▁2012.	-10.0716
▁mer	-10.072
▁concours	-10.0729
▁scène	-10.0731
▁facilement	-10.0733
▁dossiers	-10.0737
intérieur	-10.0737
▁46	-10.0742
mont	-10.0744
▁responsables	-10.0748
▁destination	-10.0753
▁88	-10.0771
Finance	-10.0778
trait	-10.0778
▁moindre	-10.078
▁57	-10.0784
▁or	-10.0785
esprit	-10.0785
érer	-10.0786
▁passant	-10.0792
emb	-10.0792
Al	-10.0793
▁concept	-10.0795
▁argent	-10.0805
pri	-10.0824
▁Attention	-10.0824
▁trading	-10.0826
▁mètres	-10.0828
▁payé	-10.0836
▁89	-10.0841
▁acquis	-10.0844
▁dividendes	-10.0844
▁métier	-10.0847
▁entretien	-10.0847
▁réalisation	-10.0848
rons	-10.0849
▁nommé	-10.0849
48	-10.085
Q	-10.0855
voy	-10.0855
▁recettes	-10.0866
▁surveillance	-10.0866
▁choses	-10.087
▁défi	-10.0877
▁20%	-10.0879
uc	-10.0879
instant	-10.0879
▁%,	-10.0886
acte	-10.0888
▁trimestres	-10.0889
là	-10.0891
▁CSG	-10.0899
▁information	-10.0903
▁bi	-10.0907
pre	-10.0918
▁43	-10.0923
▁milieu	-10.0932
▁limité	-10.0935
▁député	-10.094
▁64	-10.094
▁portée	-10.094
dre	-10.094
▁120	-10.0941
▁Man	-10.0941
environ	-10.0951
ach	-10.0955
▁devis	-10.0967
55	-10.0967
▁ét	-10.0971
obtenir	-10.0972
▁Ben	-10.0977
▁autonome	-10.098
▁pla	-10.0987
▁Twitter	-10.0987
OS	-10.1006
▁préalable	-10.1006
cla	-10.1011
▁belle	-10.1013
▁https	-10.1018
▁tenir	-10.1019
▁entrée	-10.1026
▁Ve	-10.1026
▁gra	-10.1034
▁tri	-10.1038
▁—	-10.1039
▁touché	-10.1042
▁baisser	-10.1046
▁Président	-10.1047
▁ca	-10.1051
49	-10.1058
▁engagement	-10.1058
▁remplir	-10.1071
▁souscripteur	-10.1071
lic	-10.1073
▁Marc	-10.1082
▁Am	-10.1083
international	-10.1084
▁sanctions	-10.1088
▁terre	-10.1091
▁corps	-10.1094
▁collaborateurs	-10.1096
▁naissance	-10.1099
iff	-10.1108
▁habitants	-10.1111
▁dollar	-10.1118
▁agricole	-10.1118
▁Maison	-10.1122
85	-10.1128
▁vo	-10.1128
▁règle	-10.1129
▁mention	-10.1132
▁effectué	-10.1142
▁clés	-10.1143
▁chemin	-10.1145
▁couvre	-10.1146
▁spécialisé	-10.1151
▁demeure	-10.1151
▁locales	-10.1153
ber	-10.1155
▁nucléaire	-10.1157
▁emplois	-10.1162
▁feu	-10.1171
▁5%	-10.1172
▁pleine	-10.1184
▁JORF	-10.1196
▁branche	-10.1198
▁vi	-10.1203
MI	-10.1206
▁syndicats	-10.1208
tribu	-10.1208
▁veille	-10.1209
▁quelles	-10.1209
53	-10.1214
SE	-10.1215
▁compétences	-10.1216
▁histoire	-10.1226
don	-10.1226
▁commencé	-10.123
2014	-10.123
ange	-10.1231
▁élèves	-10.1239
▁transports	-10.1239
▁SAINT	-10.124
▁Afrique	-10.1242
▁accusé	-10.1245
▁défini	-10.1247
▁électriques	-10.1247
ble	-10.1248
▁vivre	-10.1254
éro	-10.1256
ures	-10.1263
▁caisse	-10.1264
investir	-10.1264
▁économie	-10.1265
▁recevoir	-10.1269
▁Th	-10.1272
▁confirmé	-10.1281
▁sort	-10.1285
AF	-10.1289
▁No	-10.1297
Autorité	-10.1301
▁Jusqu	-10.1304
ban	-10.1305
▁saisir	-10.1306
▁approche	-10.1318
▁Tech	-10.1319
ord	-10.1319
▁globale	-10.1324
▁réuni	-10.1324
▁2005	-10.1325
ran	-10.1326
▁limitée	-10.1336
▁Fed	-10.1336
▁Plusieurs	-10.1339
▁report	-10.134
▁lesquels	-10.1342
▁meilleures	-10.1344
▁traité	-10.1345
▁of	-10.1349
▁commencer	-10.1351
chant	-10.1352
ARD	-10.1363
▁Fi	-10.1364
▁gains	-10.1365
ey	-10.1369
▁inc	-10.137
ible	-10.1375
▁Pré	-10.1395
▁Suisse	-10.1396
▁Bordeaux	-10.1398
▁équivalent	-10.1399
▁sait	-10.14
▁logique	-10.14
▁commerciaux	-10.1407
▁Dès	-10.1408
▁parc	-10.1411
ru	-10.1412
▁importants	-10.1414
▁cloud	-10.1424
IER	-10.1428
▁Com	-10.1439
▁mère	-10.144
▁PS	-10.1447
▁postes	-10.1451
▁devoir	-10.1457
▁zéro	-10.1464
▁fortune	-10.1468
▁Non	-10.147
intégration	-10.1475
atif	-10.1475
out	-10.1481
▁rentrée	-10.149
▁association	-10.1494
attend	-10.1495
▁61	-10.1496
▁poursuivre	-10.1497
IM	-10.1499
▁vice	-10.15
aï	-10.1503
▁modifier	-10.1505
vers	-10.1507
▁Olivier	-10.1509
▁attendre	-10.1514
▁automatiquement	-10.1515
▁scénario	-10.1518
▁obligation	-10.1522
▁cour	-10.1522
extrême	-10.1532
▁devront	-10.1535
▁séance	-10.1539
président	-10.1539
▁adaptée	-10.1547
Ar	-10.1551
▁VI	-10.1553
▁bail	-10.1556
▁transmission	-10.1556
▁réelle	-10.1563
ines	-10.1565
ave	-10.1567
▁Sous	-10.1569
▁bonus	-10.1571
▁Do	-10.1572
envoi	-10.1579
value	-10.1582
▁disposer	-10.1584
rez	-10.1592
▁difficulté	-10.1594
fer	-10.1596
▁gr	-10.1599
▁attention	-10.16
▁Eric	-10.1603
▁Wi	-10.1605
▁commence	-10.1605
cho	-10.1612
raient	-10.162
65	-10.1622
avec	-10.1622
PE	-10.1622
▁suivants	-10.1623
▁bénéficient	-10.163
avant	-10.1638
▁perdre	-10.1642
▁imposable	-10.1643
▁différé	-10.1647
▁clair	-10.1649
▁adopté	-10.1653
▁concurrents	-10.1654
▁Fillon	-10.1657
▁suivantes	-10.1659
▁Pay	-10.166
▁digital	-10.1669
▁limites	-10.167
▁59	-10.167
van	-10.1671
▁foncière	-10.1672
▁extérieur	-10.1674
igne	-10.1675
▁directrice	-10.1675
▁réponses	-10.1682
nu	-10.1685
▁Quant	-10.1686
intervention	-10.1687
▁Martin	-10.1693
▁proposés	-10.1696
▁DES	-10.1697
En	-10.1698
▁régler	-10.1706
▁modifiant	-10.1717
tar	-10.1717
hum	-10.1724
▁May	-10.1725
▁30%	-10.1726
▁signifie	-10.1726
cou	-10.1729
▁rang	-10.1732
mes	-10.1735
ate	-10.1739
▁circulation	-10.174
-1	-10.1745
▁transaction	-10.1751
AMF	-10.1753
▁frein	-10.176
▁comparateur	-10.1763
▁écologique	-10.1765
teurs	-10.1769
uel	-10.177
▁néanmoins	-10.1776
▁mensuel	-10.1776
▁Règlement	-10.1778
▁ordinateur	-10.1781
▁négociation	-10.1785
▁Face	-10.1786
▁restant	-10.1787
▁joue	-10.1794
▁donation	-10.1796
▁victime	-10.1797
▁prochaines	-10.1798
▁télévision	-10.1805
pin	-10.1808
ote	-10.1817
▁pertes	-10.182
lée	-10.1828
▁abattement	-10.1828
▁2011,	-10.1829
▁refus	-10.183
▁anciens	-10.1834
/19	-10.1838
AU	-10.184
▁législatives	-10.184
actif	-10.1841
56	-10.1844
▁prévoyance	-10.1848
▁modification	-10.1849
q	-10.185
aise	-10.1852
▁Sch	-10.1854
sol	-10.1861
▁mariage	-10.1864
▁nécessite	-10.187
▁arrêté	-10.1871
▁réalise	-10.1877
▁secondaire	-10.1878
▁numériques	-10.1879
▁quels	-10.1879
▁www	-10.1887
▁expliqué	-10.1894
▁mini	-10.1898
▁volume	-10.1901
▁caractéristique	-10.1903
▁usage	-10.1926
ian	-10.1928
▁adresse	-10.1928
▁Mé	-10.1934
▁relatives	-10.1937
▁élu	-10.1939
100	-10.194
▁ouverture	-10.1941
ouvrir	-10.1943
▁Mor	-10.1947
vr	-10.1948
200	-10.1949
▁médecin	-10.1949
▁00	-10.1951
han	-10.1953
▁(3	-10.1954
▁retraits	-10.1955
▁cent	-10.1961
▁détaillé	-10.1963
▁David	-10.1963
▁fourni	-10.1965
orientation	-10.1972
▁forcément	-10.1975
▁taxes	-10.1979
▁envisage	-10.198
▁min	-10.1983
illon	-10.1987
fond	-10.1987
ano	-10.1988
Cercle	-10.1988
▁=	-10.1994
54	-10.1995
▁indépendants	-10.1995
▁examen	-10.1996
▁complément	-10.2001
▁sommet	-10.2006
▁conseillers	-10.2006
▁dépasser	-10.2011
▁convient	-10.2013
ret	-10.2014
lect	-10.2018
▁dévoilé	-10.2025
▁viennent	-10.2027
▁télécoms	-10.2029
▁consultation	-10.203
▁ajoute	-10.2032
tan	-10.2032
men	-10.2035
▁2020	-10.2037
ib	-10.204
▁PIB	-10.2042
▁Bonjour	-10.2044
▁comparaison	-10.2046
ités	-10.2052
▁bo	-10.2053
68	-10.2061
▁déposé	-10.2062
▁discussions	-10.2065
▁Comité	-10.2065
▁demandes	-10.2069
▁smartphones	-10.2071
▁accompagner	-10.2074
▁CH	-10.2074
▁clé	-10.2082
▁promotion	-10.2086
▁transparence	-10.209
▁RO	-10.2092
▁fonctions	-10.2094
▁négatif	-10.2094
RA	-10.2095
▁réalisés	-10.2097
▁crois	-10.2097
ani	-10.2099
▁publiée	-10.2101
▁allemande	-10.2101
▁valorisation	-10.2106
▁calculé	-10.2107
▁salon	-10.211
▁quart	-10.2118
ze	-10.2121
▁%)	-10.2128
tor	-10.2129
▁Bouygues	-10.2129
▁perspectives	-10.2131
▁travailleurs	-10.2139
mie	-10.2141
ity	-10.2146
▁âge	-10.215
▁800	-10.2153
▁médicale	-10.2154
51	-10.2155
za	-10.2155
▁To	-10.2156
▁appareils	-10.2161
tech	-10.2167
tions	-10.217
▁partiel	-10.217
▁liée	-10.2171
EC	-10.2172
▁vend	-10.2172
FR	-10.2176
▁quasi	-10.2176
ieux	-10.2178
▁autorisation	-10.2186
▁boursier	-10.2188
▁Celle	-10.2194
▁pic	-10.2197
▁renouvelable	-10.2199
allocation	-10.2202
▁47	-10.2203
▁Toulouse	-10.2204
ê	-10.221
▁statistiques	-10.2212
▁(2)	-10.2218
▁clause	-10.2222
▁simulation	-10.2225
▁MA	-10.223
qué	-10.2231
▁flux	-10.2232
ives	-10.2234
▁phénomène	-10.2236
bon	-10.2237
ec	-10.2237
▁menée	-10.2248
▁vendeur	-10.2251
MA	-10.2253
▁positive	-10.2253
▁Li	-10.2255
▁anticipé	-10.2259
▁fonctionnaires	-10.2267
▁familles	-10.2268
▁rupture	-10.2268
▁organisé	-10.2271
▁consultations	-10.2273
▁Total	-10.2278
nde	-10.2295
SS	-10.2297
ros	-10.2298
▁enjeux	-10.2298
▁Direction	-10.23
▁danger	-10.23
▁filière	-10.2302
www	-10.2303
▁casque	-10.2307
▁journaliste	-10.2309
auteur	-10.231
▁couvrir	-10.231
▁maintenir	-10.2312
▁congé	-10.2317
▁mar	-10.2323
▁scolaire	-10.2323
▁vague	-10.2333
▁complet	-10.2337
rais	-10.2338
▁cha	-10.2339
endettement	-10.234
▁Pre	-10.2343
aura	-10.2349
Emmanuel	-10.2349
▁relève	-10.235
▁Toutes	-10.2351
évaluation	-10.2351
ouv	-10.2352
▁couvert	-10.2357
OUR	-10.2359
▁Hello	-10.236
FA	-10.2362
▁standard	-10.2366
issent	-10.2366
▁immédiatement	-10.2367
▁tableau	-10.2369
▁applicable	-10.2371
ect	-10.2375
▁50%	-10.2375
▁représentants	-10.2376
ack	-10.2381
▁Pays	-10.2384
▁prévisions	-10.2391
▁Port	-10.2394
▁stade	-10.2398
ef	-10.24
▁créée	-10.2403
▁Da	-10.2404
▁Anne	-10.2407
▁exclu	-10.241
▁élus	-10.2412
▁Voir	-10.242
▁méthode	-10.2422
tons	-10.2427
▁servir	-10.2431
▁associé	-10.2433
▁noir	-10.2435
▁prison	-10.2437
▁départements	-10.2437
éd	-10.2437
AY	-10.2438
▁inférieure	-10.2448
mis	-10.2449
▁heure	-10.2455
▁Nouveau	-10.2455
▁mises	-10.2464
▁bureaux	-10.2464
▁espère	-10.2465
▁soi	-10.2466
▁Bernard	-10.2471
cri	-10.2475
▁gain	-10.2481
▁lancée	-10.2481
▁majeure	-10.2488
Au	-10.249
▁Oui	-10.2491
▁Demande	-10.2497
lou	-10.2498
COM	-10.25
tez	-10.2501
▁exercice	-10.2504
impôts	-10.2504
▁socialiste	-10.2504
▁Ri	-10.2505
▁images	-10.2507
▁Trois	-10.2516
▁Budget	-10.2517
▁Parti	-10.2518
vant	-10.2521
ient	-10.2522
▁PERP	-10.2523
gar	-10.253
▁Comp	-10.2532
ev	-10.2537
▁père	-10.2538
▁1,2	-10.254
gen	-10.2542
ov	-10.2546
tier	-10.2549
▁ro	-10.255
▁suivante	-10.2551
▁acte	-10.2552
ente	-10.2555
▁repli	-10.2557
Afrique	-10.2563
inverse	-10.2567
ain	-10.2567
▁gratuite	-10.2572
▁faute	-10.2577
illé	-10.2586
▁centres	-10.2589
▁évolution	-10.259
▁Per	-10.2592
euil	-10.2594
▁dépasse	-10.2598
ép	-10.2601
rée	-10.2607
▁plans	-10.261
issement	-10.2616
▁contenus	-10.2618
▁2,5	-10.2619
▁échange	-10.2619
fin	-10.2622
▁Coupe	-10.2625
entretien	-10.2625
▁déterminer	-10.263
▁primes	-10.2633
▁bac	-10.2635
berg	-10.2648
Saint	-10.2651
lie	-10.2652
▁plainte	-10.2655
▁emprunt	-10.2658
rin	-10.2663
▁environnement	-10.267
▁53	-10.2673
▁thème	-10.2679
▁ferme	-10.2683
▁87	-10.2686
illa	-10.2686
▁Su	-10.2689
dy	-10.2689
▁contacter	-10.2694
bre	-10.2695
▁69	-10.2696
▁Alain	-10.2696
▁Christian	-10.2701
▁cor	-10.2702
▁verser	-10.2708
illi	-10.2717
▁Euronext	-10.2722
▁puisqu	-10.2725
▁Jacques	-10.2728
▁RE	-10.2742
ME	-10.2743
77	-10.2745
▁divers	-10.2748
ini	-10.2751
we	-10.2751
▁recommandé	-10.2751
Usine	-10.2755
ster	-10.2757
▁récente	-10.2761
▁échanges	-10.2762
êt	-10.2762
ug	-10.2762
▁appelle	-10.2766
▁importantes	-10.2767
▁idée	-10.2772
OT	-10.2775
▁oeuvre	-10.2794
▁éco	-10.2794
▁fille	-10.2805
autorisation	-10.2809
cal	-10.281
▁Agence	-10.281
▁égal	-10.2816
ments	-10.2819
▁rêve	-10.2822
▁lycée	-10.2824
▁bailleur	-10.2828
▁Outre	-10.2841
▁employés	-10.2845
▁locatif	-10.2845
engagement	-10.2847
▁condamné	-10.2848
ING	-10.2855
▁rédaction	-10.2856
IP	-10.2856
ana	-10.2858
▁rempli	-10.2864
▁bâtiment	-10.2864
EI	-10.2866
Agence	-10.2867
amp	-10.2867
▁répartition	-10.2867
▁exceptionnelle	-10.287
▁parisien	-10.2876
▁secret	-10.2878
hors	-10.2879
dou	-10.2882
▁250	-10.2882
▁Che	-10.2882
▁dépendance	-10.2889
AG	-10.2894
ose	-10.2901
Italie	-10.2903
▁fabrication	-10.2904
▁travaille	-10.2906
rage	-10.2907
vert	-10.2909
▁Stéphane	-10.2916
▁bénéficiez	-10.2917
▁jugé	-10.292
▁changements	-10.2923
▁chambre	-10.2925
▁Inter	-10.2929
naire	-10.2931
▁constructeurs	-10.2931
iez	-10.2934
▁kilomètres	-10.2937
▁Pe	-10.2947
▁précédente	-10.295
ologie	-10.2956
▁fixée	-10.2959
52	-10.2959
▁Dis	-10.2965
Les	-10.2969
▁gratuitement	-10.2975
▁franc	-10.298
nés	-10.2982
▁délégué	-10.2987
▁organisation	-10.2989
▁détenu	-10.2995
▁actif	-10.3002
▁fera	-10.3002
▁déduction	-10.3009
▁normes	-10.301
lat	-10.3013
fe	-10.3018
▁apport	-10.3018
alisation	-10.302
position	-10.3021
rain	-10.3021
▁fournisseur	-10.3023
58	-10.3025
▁SE	-10.3025
▁barre	-10.3028
GE	-10.3036
▁bitcoin	-10.304
▁participer	-10.3041
▁lié	-10.3041
▁compagnies	-10.3044
▁logiciels	-10.3044
▁Gar	-10.3047
uer	-10.3048
af	-10.3049
▁appliqué	-10.3051
▁subi	-10.3052
▁résiliation	-10.3054
BA	-10.3057
▁amende	-10.3063
emp	-10.3064
▁contrepartie	-10.3064
▁for	-10.3066
▁pôle	-10.3066
▁émis	-10.3068
▁opérationnel	-10.3068
▁Ti	-10.307
▁générales	-10.3073
▁crypto	-10.308
tien	-10.308
▁Hu	-10.3082
dessous	-10.3086
▁Hamon	-10.3087
▁Action	-10.3088
▁AM	-10.3088
▁devises	-10.309
ym	-10.309
▁sujets	-10.3094
▁central	-10.3094
▁marketing	-10.3097
▁Cas	-10.3098
▁partout	-10.31
▁reconnu	-10.3102
▁fabricant	-10.3103
▁situe	-10.3104
ANT	-10.3105
▁décide	-10.3105
ino	-10.3106
▁ministres	-10.3106
▁photos	-10.3107
▁Sou	-10.3117
▁réalisées	-10.3118
▁japonais	-10.3119
▁Te	-10.3122
ik	-10.3123
▁Frédéric	-10.3124
▁constate	-10.3126
▁devait	-10.3134
▁Loire	-10.3134
RO	-10.3137
ssement	-10.3137
▁totalité	-10.3145
/12/2018	-10.3147
▁genre	-10.3149
▁paie	-10.3154
▁acc	-10.3155
ers	-10.3159
▁transmis	-10.316
73	-10.3163
▁remis	-10.3167
▁conséquence	-10.3169
▁affiché	-10.3169
▁DGCCRF	-10.3179
▁Trans	-10.3181
▁quartier	-10.3184
▁Italie	-10.319
▁révèle	-10.319
▁66	-10.319
SI	-10.3191
▁demain	-10.3193
égalité	-10.3194
▁découvrir	-10.3195
tic	-10.3195
▁favoriser	-10.3197
▁militaire	-10.3199
AD	-10.3202
▁All	-10.3202
éné	-10.3205
▁internautes	-10.3207
▁@	-10.3208
antes	-10.3209
autonomie	-10.3215
▁division	-10.3215
▁(5	-10.3218
cip	-10.3219
▁progressé	-10.3232
▁italien	-10.3233
▁cité	-10.3233
▁associée	-10.3234
nage	-10.3235
▁versée	-10.3238
▁budgétaire	-10.3242
FF	-10.3244
▁II	-10.3246
▁LCL	-10.3246
▁stable	-10.3251
/02/2019	-10.3253
▁Web	-10.326
▁notaire	-10.3268
▁soutenir	-10.3271
▁clairement	-10.3273
▁MAR	-10.3276
tif	-10.329
ques	-10.3295
▁actes	-10.3296
▁résolution	-10.3302
▁suisse	-10.3303
▁levier	-10.3304
ice	-10.331
▁Ville	-10.3316
▁apporter	-10.3317
▁reprendre	-10.3317
▁ajouté	-10.3319
▁Rou	-10.3323
▁chantier	-10.3324
▁laisse	-10.3325
▁PSA	-10.3328
▁fête	-10.3331
▁écoles	-10.3332
▁Forum	-10.3333
▁chance	-10.3333
▁vélo	-10.3334
▁confort	-10.3336
▁proposée	-10.3339
utiliser	-10.3341
▁procéder	-10.335
▁essentiel	-10.335
▁retrouve	-10.335
ju	-10.3354
▁76	-10.3354
▁indispensable	-10.3355
▁man	-10.3358
▁souhaitent	-10.3359
gon	-10.3363
▁affaire	-10.3365
▁dehors	-10.337
▁Lille	-10.3371
pdf	-10.3372
ami	-10.3372
▁Sarkozy	-10.3378
▁2004	-10.3379
▁ordre	-10.338
▁centaines	-10.3388
▁football	-10.3389
▁Journal	-10.339
▁faite	-10.3394
çon	-10.3395
▁BP	-10.3397
ny	-10.3404
vin	-10.3407
▁signal	-10.3409
hor	-10.3412
▁agricoles	-10.3414
▁63	-10.3414
cer	-10.3417
▁programmes	-10.342
▁destiné	-10.342
▁capable	-10.3423
▁Trésor	-10.3429
▁coeur	-10.3431
▁musique	-10.3432
▁préparation	-10.3436
▁Afin	-10.3436
fort	-10.3439
▁effectués	-10.3451
▁immobilières	-10.3455
▁étrangères	-10.346
▁54	-10.346
cycl	-10.3461
commerce	-10.3467
▁médical	-10.3471
▁concurrent	-10.3475
▁liquidité	-10.3479
▁matières	-10.348
▁74	-10.348
ica	-10.3481
▁Louis	-10.3484
▁Christophe	-10.3486
▁personnelle	-10.3489
▁vent	-10.349
▁commerçants	-10.3491
▁nécessité	-10.3491
ifs	-10.3494
▁chercheurs	-10.3494
▁rapporte	-10.3495
▁revenir	-10.3495
▁Pékin	-10.3515
▁cro	-10.3515
existence	-10.352
▁démission	-10.3521
oire	-10.3525
▁livres	-10.3527
▁possibles	-10.3528
armée	-10.3533
▁médicaments	-10.3535
▁cotation	-10.3539
▁fournisseurs	-10.3541
▁primaire	-10.3544
▁individuelle	-10.3545
Pierre	-10.3553
examen	-10.3553
faire	-10.3556
▁accepté	-10.3557
▁pièce	-10.3559
▁réflexion	-10.3562
exécutif	-10.3562
tis	-10.3564
▁patients	-10.3564
▁copie	-10.3568
▁garantir	-10.3568
▁58	-10.3569
▁salle	-10.3571
ED	-10.3575
▁Sp	-10.3581
▁adapté	-10.3582
▁Carrefour	-10.3594
▁prépare	-10.3594
indemnisation	-10.3598
▁Haute	-10.36
▁plafonds	-10.3605
▁suit	-10.3611
▁institutions	-10.3613
▁).	-10.3614
▁Grande	-10.3619
▁AL	-10.362
▁future	-10.362
▁légale	-10.3623
▁spéciale	-10.3624
▁MONDIALE	-10.3631
ep	-10.364
dition	-10.3641
▁sert	-10.3642
66	-10.3644
▁Patrick	-10.3644
▁Bas	-10.3646
▁technologique	-10.3648
xi	-10.3651
▁situé	-10.3659
▁connaît	-10.3662
cu	-10.3665
▁Général	-10.3666
▁Q	-10.3669
attaque	-10.367
▁ralentissement	-10.3672
0€	-10.3673
tine	-10.3675
▁yeux	-10.3685
▁rénovation	-10.3689
▁Thomas	-10.3691
▁né	-10.3695
▁chronique	-10.3703
▁montée	-10.3703
▁prévues	-10.3704
wa	-10.3705
bat	-10.3705
aine	-10.3708
▁Digitale	-10.3709
AB	-10.3709
CO	-10.3713
nent	-10.3714
▁Coût	-10.3715
ust	-10.3715
apprentissage	-10.3723
bé	-10.3727
▁indépendant	-10.3727
aille	-10.3732
▁lesquelles	-10.3737
▁ancienne	-10.3744
▁TV	-10.3747
▁utile	-10.3753
▁bataille	-10.3753
▁International	-10.3759
ric	-10.3762
▁textes	-10.3763
▁calendrier	-10.3764
▁attend	-10.3771
PS	-10.3773
▁privés	-10.3777
▁voté	-10.3781
▁résistance	-10.3782
▁accéder	-10.3783
▁blanc	-10.3788
▁conf	-10.3788
▁inclus	-10.3793
▁telles	-10.3797
oli	-10.3798
▁BforBank	-10.3801
aut	-10.3801
▁Mes	-10.3809
▁Analyse	-10.381
▁Entreprises	-10.3811
▁placer	-10.3812
he	-10.3816
▁personnels	-10.3818
▁Leur	-10.3819
2013	-10.3819
▁lecture	-10.3825
▁contribuable	-10.3827
▁nomination	-10.3828
▁conduit	-10.3828
▁remettre	-10.3832
amélioration	-10.3834
▁Art	-10.3839
ENT	-10.3839
Euro	-10.384
▁récupérer	-10.3845
PME	-10.3849
▁Temps	-10.385
▁volatilité	-10.3855
▁acheté	-10.3855
banque	-10.3857
PR	-10.3859
▁construit	-10.3863
▁catégories	-10.3865
▁touche	-10.3866
ult	-10.3866
▁83	-10.3866
acheter	-10.3867
ore	-10.3869
▁cancer	-10.387
▁Française	-10.387
▁légère	-10.3871
▁promet	-10.3872
▁arrêt	-10.3874
uve	-10.3877
▁garder	-10.3877
▁journalistes	-10.3878
qua	-10.3881
▁faibles	-10.3883
flu	-10.3883
▁77	-10.3886
▁Merci	-10.3889
▁business	-10.3892
▁lignes	-10.3893
où	-10.3894
élé	-10.3899
▁conforme	-10.3901
▁700	-10.3905
▁Alexandre	-10.3906
▁téléphonique	-10.391
▁utilisation	-10.3914
AV	-10.392
▁vouloir	-10.3921
95	-10.3923
▁administrative	-10.3927
▁al	-10.393
▁cinéma	-10.3934
▁toucher	-10.3947
effectuer	-10.3949
▁Boursier	-10.3953
isés	-10.3955
▁formules	-10.3955
▁continent	-10.3956
▁pou	-10.3957
▁pri	-10.3957
▁magasins	-10.3963
▁95	-10.3965
▁fut	-10.3965
▁rémunéré	-10.397
▁parisienne	-10.397
▁provision	-10.3971
▁critique	-10.3975
▁intermédiaire	-10.3976
cur	-10.3977
ies	-10.3982
▁impossible	-10.3983
▁multirisque	-10.3984
▁légèrement	-10.3986
▁Cla	-10.3988
nger	-10.3989
espoir	-10.3992
entrepreneur	-10.3994
▁marqué	-10.3997
▁Gra	-10.4001
iller	-10.4002
épargnant	-10.4002
▁domaines	-10.4009
▁pé	-10.4013
$	-10.4016
unité	-10.4019
▁multiples	-10.4019
▁présidence	-10.4022
▁évoqué	-10.4024
▁Act	-10.4024
venu	-10.4025
▁étudiant	-10.4026
▁Reuters	-10.4036
éviter	-10.4038
▁combat	-10.4041
▁ETF	-10.4041
▁sécurisé	-10.4044
▁penser	-10.4047
cro	-10.4047
▁alimentaires	-10.4047
▁1%	-10.4054
horizon	-10.4057
▁anglais	-10.4058
▁déclarations	-10.4059
▁56	-10.4061
▁proposées	-10.4063
▁réparti	-10.4072
▁interdit	-10.4072
▁exposé	-10.4075
▁92	-10.4075
ick	-10.4082
▁cons	-10.4087
▁FN	-10.4088
▁mauvaise	-10.4097
▁complexe	-10.4104
▁augmente	-10.4106
▁devenue	-10.4107
ages	-10.411
ja	-10.4111
▁2011.	-10.4111
quant	-10.4115
bert	-10.4117
▁réformes	-10.4118
ast	-10.4119
▁entièrement	-10.4124
omm	-10.4132
▁remplacement	-10.4135
▁poser	-10.4136
fl	-10.414
log	-10.415
cy	-10.4151
ell	-10.4154
▁expert	-10.4156
▁versé	-10.4156
▁acheteurs	-10.4158
▁alerte	-10.4165
▁2010,	-10.4171
époque	-10.4171
▁Fort	-10.4183
▁valable	-10.4185
▁internationales	-10.4189
venir	-10.4194
▁recrutement	-10.4196
exemple	-10.4196
TS	-10.4197
▁rapports	-10.4199
▁catastrophe	-10.4201
ute	-10.4203
lib	-10.4203
ame	-10.4204
cc	-10.4207
▁affecté	-10.4207
▁commandes	-10.4209
▁reconnaissance	-10.4217
▁pointe	-10.4218
▁copropriété	-10.422
ssi	-10.4221
CC	-10.4222
▁procédures	-10.4222
CP	-10.4223
▁familial	-10.4224
▁coordonnées	-10.4225
▁locale	-10.4227
▁0,2	-10.4227
▁auquel	-10.4228
▁rejet	-10.423
Ma	-10.4231
omb	-10.4231
▁ai	-10.4231
tage	-10.4231
▁stock	-10.4243
▁PRO	-10.4243
▁repose	-10.4245
▁82	-10.4247
74	-10.425
usine	-10.4251
Ã	-10.4252
IG	-10.4256
▁licence	-10.4259
▁raconte	-10.4259
▁2003	-10.4261
▁dessin	-10.4269
▁changé	-10.427
EX	-10.4272
ans	-10.4274
▁positif	-10.4275
ray	-10.4278
tré	-10.4279
mm	-10.4284
▁Edouard	-10.4284
▁morts	-10.4286
▁Poste	-10.429
mail	-10.4291
▁maisons	-10.4293
▁fini	-10.4299
▁carburant	-10.4299
▁Contrat	-10.4307
▁52	-10.4307
▁réaction	-10.4317
▁souci	-10.4318
EUR	-10.4318
▁efforts	-10.4319
pl	-10.4324
▁évoque	-10.4326
▁naturel	-10.4336
▁tiré	-10.4336
▁mauvais	-10.4336
▁SNCF	-10.4337
uy	-10.4338
▁usagers	-10.434
."	-10.4347
attribution	-10.4349
iel	-10.435
sible	-10.4351
▁Bra	-10.4359
▁certaine	-10.4359
▁locataires	-10.4365
▁luxe	-10.4365
▁HSBC	-10.4365
▁cycle	-10.4367
▁plateformes	-10.4368
▁joueurs	-10.437
▁revue	-10.4383
anne	-10.4384
▁puisse	-10.4388
▁ET	-10.4389
▁ratio	-10.4391
oul	-10.4392
▁citoyens	-10.4393
▁obligatoires	-10.4396
▁Sol	-10.4397
▁Nantes	-10.44
DS	-10.4401
▁2%	-10.4402
▁industriel	-10.4403
▁tribune	-10.4405
▁CEDEX	-10.441
▁gagné	-10.441
▁acteur	-10.4412
▁promis	-10.4415
▁facteurs	-10.4418
▁camp	-10.4419
▁lutter	-10.4425
▁grave	-10.4428
▁comporte	-10.4431
▁mo	-10.4432
ifier	-10.4434
▁cadres	-10.4435
▁Business	-10.4435
▁intégré	-10.4436
▁Global	-10.4438
▁Ru	-10.444
▁sources	-10.444
ral	-10.4442
▁pouvoirs	-10.4444
▁mémoire	-10.4445
▁monte	-10.4445
▁1,7	-10.4447
tiques	-10.4448
▁géants	-10.4452
importe	-10.4454
parole	-10.4456
î	-10.4457
▁Ses	-10.446
uit	-10.4461
ya	-10.4463
▁prêteur	-10.4463
▁virements	-10.4465
écart	-10.447
▁futurs	-10.4472
▁célèbre	-10.4473
▁technologiques	-10.4473
▁Retrouvez	-10.4475
▁initial	-10.4476
équilibre	-10.4476
▁Pourtant	-10.4477
plus	-10.4479
impression	-10.4479
▁Belgique	-10.448
bl	-10.4491
INE	-10.4493
▁dettes	-10.4493
▁Del	-10.4493
▁bois	-10.4495
▁échéance	-10.4498
ches	-10.45
▁Strasbourg	-10.4504
▁Décret	-10.4506
▁justifier	-10.4508
▁Airbus	-10.4513
▁EDF	-10.4514
UT	-10.4514
87	-10.4515
▁conséquent	-10.452
▁¤	-10.452
▁choc	-10.4523
:00	-10.4523
▁Uber	-10.4527
▁auront	-10.4527
▁tenter	-10.4534
▁âgées	-10.4535
▁Gi	-10.454
▁élevée	-10.4547
the	-10.4552
▁émissions	-10.4553
▁préféré	-10.4557
dor	-10.4558
sta	-10.4559
▁col	-10.456
▁printemps	-10.4561
ém	-10.4563
cré	-10.4564
▁territoires	-10.4565
▁opérationnelle	-10.4565
▁appartement	-10.4569
▁frontière	-10.4575
▁label	-10.458
wi	-10.4583
▁vidéos	-10.4587
dio	-10.4588
TI	-10.4589
▁Aux	-10.4596
tit	-10.46
▁bal	-10.4602
ati	-10.4602
▁possède	-10.4608
nie	-10.4615
=	-10.4615
▁mensuelle	-10.4618
èle	-10.4621
Apple	-10.4625
▁magasin	-10.4628
écran	-10.4628
▁biais	-10.4634
▁argument	-10.4635
▁Vincent	-10.464
▁3%	-10.4645
▁montants	-10.4649
▁machine	-10.465
ight	-10.4654
▁ait	-10.4659
▁informé	-10.4661
nal	-10.4663
▁gagne	-10.4665
existe	-10.4665
EP	-10.4667
▁Ber	-10.4668
▁employeur	-10.4669
vol	-10.4669
▁prenant	-10.4671
▁bras	-10.4671
▁trente	-10.4674
▁Certaines	-10.4675
▁0.	-10.4679
Economie	-10.4681
▁poursuite	-10.4681
▁médiateur	-10.4682
ouche	-10.4685
ôt	-10.4692
▁Front	-10.4696
▁attendu	-10.47
▁médecins	-10.4701
ssa	-10.4702
▁centrales	-10.4704
▁idées	-10.4706
alimentation	-10.4708
▁CES	-10.4709
▁Robert	-10.4715
ome	-10.4718
▁PARIS	-10.4719
▁(4	-10.4732
▁stabilité	-10.4736
▁égale	-10.4737
▁comportement	-10.4741
intérêts	-10.4744
▁févr	-10.4744
TA	-10.4748
installation	-10.4751
ert	-10.4752
ps	-10.4756
clu	-10.4756
agne	-10.4758
▁radio	-10.4762
▁donnée	-10.4767
▁Canada	-10.4767
▁Mari	-10.4775
ah	-10.4778
LO	-10.4779
▁indices	-10.4779
▁flotte	-10.4783
▁servi	-10.4786
▁vivant	-10.4788
▁basée	-10.479
▁mobilisation	-10.4791
▁86	-10.4791
UL	-10.4793
▁Sal	-10.4793
▁engagements	-10.4795
▁réparation	-10.4801
▁situations	-10.4801
▁feuille	-10.4805
éc	-10.4808
rent	-10.4808
▁format	-10.4817
©	-10.482
▁indemnités	-10.4821
▁segment	-10.4826
bri	-10.4829
▁auraient	-10.4832
▁fermeture	-10.4836
▁entier	-10.4836
▁accidents	-10.484
▁publie	-10.484
plication	-10.4846
bor	-10.4847
▁week	-10.4847
▁engagé	-10.4849
An	-10.4851
▁Celui	-10.4852
off	-10.4853
▁750	-10.4855
300	-10.4859
▁régulation	-10.4862
▁Guide	-10.4863
▁profession	-10.4865
72	-10.4865
Or	-10.4865
005	-10.487
▁désigné	-10.487
▁fenêtre	-10.4874
▁composé	-10.4874
era	-10.4877
▁précis	-10.4886
▁occasion	-10.4886
▁management	-10.4889
ost	-10.4889
ial	-10.489
▁gagnant	-10.4892
▁utilisés	-10.4892
▁rentable	-10.4893
▁organisme	-10.4894
intégralité	-10.4901
▁prennent	-10.4904
TT	-10.4905
▁proposant	-10.4906
▁Bri	-10.4906
DA	-10.4907
exception	-10.4907
▁diesel	-10.4914
78	-10.4915
tri	-10.4917
▁significative	-10.4924
ule	-10.4924
▁quotidienne	-10.4927
▁électroniques	-10.493
études	-10.4931
gr	-10.4934
▁Soit	-10.4937
▁recueilli	-10.4938
▁x	-10.4939
▁allé	-10.494
▁évidemment	-10.4941
▁Offre	-10.4943
hypothèse	-10.4943
▁diverses	-10.4948
LI	-10.495
ali	-10.4951
agir	-10.4953
▁mettent	-10.4954
▁distributeurs	-10.4955
98	-10.4955
investisseur	-10.4956
▁indicateurs	-10.4957
acceptation	-10.4961
▁and	-10.4962
▁chèques	-10.4966
▁déposer	-10.4972
cor	-10.4973
agriculture	-10.4975
▁dialogue	-10.4975
zo	-10.498
▁compétition	-10.4985
▁conflit	-10.4987
▁intervient	-10.499
▁Har	-10.499
-2	-10.4992
▁Ju	-10.4994
▁associés	-10.5001
▁signer	-10.5001
▁coopération	-10.5001
enseigne	-10.5001
pay	-10.5002
▁Berlin	-10.5003
▁im	-10.5005
▁capacités	-10.5006
▁design	-10.5006
▁fermé	-10.5007
▁peur	-10.5007
▁déroule	-10.5008
▁déclin	-10.501
ège	-10.5011
gin	-10.5012
abri	-10.5015
nov	-10.5016
RES	-10.5017
▁Conditions	-10.5023
▁accompagne	-10.5027
▁diminuer	-10.5028
▁vérification	-10.503
▁chefs	-10.5033
64	-10.5033
▁amendement	-10.5038
▁3,5	-10.5038
▁scandale	-10.5043
▁installé	-10.5043
ong	-10.5047
▁majoration	-10.5048
engage	-10.505
▁Col	-10.505
▁bar	-10.505
▁conçu	-10.5051
▁mots	-10.5052
▁contraintes	-10.5053
▁républicain	-10.5058
▁Actions	-10.5059
▁Vos	-10.506
▁laissé	-10.5063
ouvre	-10.507
▁essentiellement	-10.5074
76	-10.5078
▁AR	-10.508
▁éligibles	-10.508
▁lendemain	-10.5083
Insee	-10.5088
▁spécialistes	-10.509
isent	-10.5093
▁référendum	-10.5098
▁prestation	-10.5098
automobile	-10.5099
▁2002	-10.5101
▁diagnostic	-10.5103
▁gouvernance	-10.5103
▁moyennes	-10.5107
86	-10.5108
▁produire	-10.5108
▁entrer	-10.511
/11/	-10.5112
▁pages	-10.5114
▁71	-10.5114
lles	-10.5118
▁planète	-10.512
tour	-10.512
▁quitter	-10.5123
▁Pé	-10.5126
avi	-10.5127
ât	-10.5128
onné	-10.5129
▁franco	-10.5131
▁Bel	-10.5133
▁volumes	-10.5138
▁1,3	-10.5138
▁Travail	-10.5142
ces	-10.5143
▁di	-10.5146
600	-10.5146
NO	-10.5149
▁organisations	-10.5156
▁déco	-10.5159
SP	-10.5161
▁perspective	-10.5165
▁panne	-10.5174
by	-10.5178
▁conception	-10.518
▁risqué	-10.5186
▁géographique	-10.5186
▁proportion	-10.5193
▁Moyen	-10.5194
▁réservée	-10.5196
▁Benoît	-10.5203
bit	-10.5204
▁Puis	-10.5204
sk	-10.5205
▁79	-10.5206
els	-10.521
▁évolutions	-10.5212
▁calculer	-10.5215
▁offrir	-10.5216
▁emp	-10.5219
▁précision	-10.5219
ui	-10.5219
▁chercher	-10.5221
▁entrepreneurs	-10.5223
ères	-10.5223
ium	-10.5224
▁législation	-10.5226
EM	-10.5229
▁o	-10.5231
89	-10.5231
accompagnement	-10.5235
▁placé	-10.5238
▁affirmé	-10.5239
▁liquide	-10.5239
▁pan	-10.524
▁<	-10.5243
invalidité	-10.5244
enregistrement	-10.5252
▁retenue	-10.5254
▁foyers	-10.5254
▁classiques	-10.5259
▁Objectif	-10.5267
▁Corée	-10.5268
oo	-10.527
▁annonces	-10.527
▁Em	-10.5273
info	-10.5275
▁télécharger	-10.5275
▁exigences	-10.5275
▁Management	-10.528
▁mairie	-10.5281
▁dizaines	-10.5281
ff	-10.5283
hésitez	-10.5286
▁Ge	-10.5289
▁mé	-10.5293
▁connecté	-10.5296
ip	-10.5297
▁présidente	-10.5308
Est	-10.5311
▁classes	-10.5313
ELLE	-10.5313
▁tests	-10.5315
▁ressort	-10.5319
▁ve	-10.5324
sp	-10.5327
▁diminution	-10.5331
▁internationaux	-10.5331
ira	-10.5331
88	-10.5331
▁transmettre	-10.5332
Ouest	-10.5334
▁Reste	-10.5336
▁tirer	-10.5337
CM	-10.5347
▁78	-10.5347
▁tir	-10.5348
one	-10.5349
▁Wa	-10.5349
alcool	-10.5351
▁DR	-10.5352
▁organisée	-10.5353
guer	-10.5355
imp	-10.5355
▁tensions	-10.536
▁maximale	-10.536
▁inf	-10.5362
▁constituent	-10.5363
act	-10.5364
mod	-10.5367
▁Pass	-10.5368
▁alimentaire	-10.5369
▁MMA	-10.5372
▁Tri	-10.5374
aller	-10.5377
▁revalorisation	-10.5378
▁mener	-10.5385
▁opposition	-10.5386
▁applicables	-10.5389
▁retirer	-10.539
▁73	-10.5391
69	-10.5394
avons	-10.5404
importance	-10.5415
▁can	-10.5416
▁caution	-10.5418
▁identifié	-10.5419
▁joint	-10.5419
▁lumière	-10.5419
▁décider	-10.5422
▁portable	-10.5423
▁intention	-10.5425
▁Ag	-10.5428
▁IN	-10.543
/04	-10.5431
▁directe	-10.5434
IFI	-10.5444
▁destinés	-10.5446
▁tend	-10.5446
▁laboratoire	-10.5446
rat	-10.545
rus	-10.5452
▁critiques	-10.5452
zi	-10.5454
explique	-10.5456
essentiel	-10.5459
▁physiques	-10.546
▁particulière	-10.5462
▁manifestation	-10.5467
ham	-10.547
▁Sé	-10.5473
augmenter	-10.5475
▁Seine	-10.5475
▁ton	-10.5476
▁Mise	-10.5478
▁objet	-10.5479
cept	-10.548
▁intervention	-10.5483
▁LDD	-10.5483
▁fais	-10.5485
cour	-10.5488
▁usine	-10.549
▁immédiat	-10.5492
VA	-10.5494
▁événements	-10.5495
▁élément	-10.5496
Co	-10.5497
▁positions	-10.5499
▁progrès	-10.5499
▁Asie	-10.55
92	-10.5501
▁Ile	-10.5503
▁maître	-10.5506
ault	-10.5506
▁distribué	-10.5507
67	-10.5509
▁médicaux	-10.551
▁caisses	-10.551
▁Maire	-10.551
iter	-10.5511
▁retrouvé	-10.5514
▁apporté	-10.5521
▁variable	-10.5526
▁profils	-10.553
tait	-10.5531
▁boursière	-10.5534
AI	-10.5534
▁progressivement	-10.5535
appuie	-10.5535
97	-10.5538
ident	-10.5538
LA	-10.5542
▁chinoise	-10.5543
▁fisc	-10.5545
RM	-10.5545
▁levé	-10.5547
efficacité	-10.5551
▁fortes	-10.5551
Luc	-10.5552
▁grève	-10.5557
▁respectivement	-10.5559
▁révélé	-10.5559
▁candidature	-10.5564
encours	-10.5567
▁repas	-10.5567
chet	-10.5567
NI	-10.5567
ume	-10.5568
▁prudent	-10.5577
▁remplacer	-10.5578
▁solide	-10.5578
▁We	-10.558
▁évoluer	-10.558
▁migrants	-10.5583
▁connectée	-10.5585
▁distributeur	-10.5587
▁espèces	-10.5587
▁actionnaire	-10.5587
▁SO	-10.5587
▁Protection	-10.5591
▁apporte	-10.5593
▁expertise	-10.5594
▁collaboration	-10.5596
▁estiment	-10.5597
▁eaux	-10.56
IB	-10.5621
▁Pôle	-10.5625
▁faits	-10.5626
Ch	-10.5627
▁détails	-10.5629
▁récent	-10.5629
▁taxation	-10.563
posé	-10.563
▁84	-10.5633
5.000	-10.5633
épreuve	-10.5637
aménagement	-10.5638
▁image	-10.5638
▁attendant	-10.564
▁sélectionné	-10.5641
initiative	-10.5641
▁montré	-10.5641
▁modestes	-10.5642
▁Guillaume	-10.5642
quer	-10.5644
ID	-10.5646
▁déb	-10.5653
▁prévoir	-10.5655
▁dépense	-10.566
▁Cou	-10.5668
▁détient	-10.5668
og	-10.5671
▁collection	-10.5673
ampleur	-10.5673
▁auteur	-10.5675
▁attendue	-10.5675
96	-10.5675
▁administratif	-10.5676
▁aff	-10.5678
▁cotées	-10.5678
▁Monsieur	-10.5678
▁lit	-10.568
▁Petit	-10.5682
▁supprimer	-10.5688
▁81	-10.5689
ria	-10.5694
▁Communiqué	-10.5694
▁batterie	-10.5694
agent	-10.5695
taire	-10.5697
▁Op	-10.5699
▁FBF	-10.57
▁personnalisé	-10.5709
▁basé	-10.571
▁phare	-10.571
lia	-10.5712
ock	-10.5714
▁John	-10.5715
▁compléter	-10.5716
▁pire	-10.5717
▁25%	-10.5717
▁accompagné	-10.5718
▁Ed	-10.5721
▁places	-10.5724
▁validé	-10.5725
▁acquisition	-10.5726
▁soumise	-10.5728
▁2001	-10.5738
▁vin	-10.5746
▁0,1	-10.5746
▁Participation	-10.5748
▁Mondial	-10.575
ley	-10.5751
pré	-10.5752
▁Cotation	-10.5759
▁syndicat	-10.5759
▁informatiques	-10.5761
iné	-10.5762
rice	-10.5764
▁0,5	-10.5766
▁Madelin	-10.5766
pens	-10.5769
▁fou	-10.5781
isse	-10.5786
▁Im	-10.5787
EA	-10.5793
▁concernées	-10.5795
Association	-10.5797
▁identique	-10.5799
▁devrez	-10.5799
▁2020.	-10.5802
▁opportunités	-10.5804
▁saisi	-10.5804
▁émergents	-10.5814
twitter	-10.5815
enfants	-10.5817
▁Bi	-10.5823
▁Monabanq	-10.5823
▁observe	-10.5823
cle	-10.583
▁fiche	-10.5833
las	-10.5839
nous	-10.5842
▁enseignes	-10.5842
▁conc	-10.5844
▁sentiment	-10.5845
▁lourde	-10.5846
actu	-10.5848
▁mail	-10.5851
rog	-10.5853
▁présents	-10.5853
del	-10.5854
▁généré	-10.5858
▁cou	-10.5863
▁boursiers	-10.5863
▁normal	-10.5873
rit	-10.5874
▁bloqué	-10.5874
▁sanction	-10.5875
CN	-10.5876
0000	-10.5877
ath	-10.5879
▁Benalla	-10.588
▁Thierry	-10.588
▁imposables	-10.588
▁SMS	-10.5881
▁tente	-10.5882
VILLE	-10.5888
▁continuent	-10.589
arbitrage	-10.5894
lus	-10.5895
▁révision	-10.5897
▁content	-10.5901
▁(6	-10.5901
▁registre	-10.5901
eu	-10.5901
▁char	-10.5908
▁familiale	-10.5912
▁crée	-10.5913
▁cal	-10.5918
▁Richard	-10.5921
▁Garantie	-10.5923
▁Ob	-10.5925
▁Noël	-10.5926
▁lot	-10.5928
▁varie	-10.5934
▁historiques	-10.5934
▁douze	-10.5937
CF	-10.594
▁parole	-10.5943
▁JOUE	-10.5954
▁voulu	-10.5956
▁disposent	-10.5956
▁Pla	-10.5958
▁Free	-10.5966
▁définir	-10.5973
▁oblige	-10.5974
tée	-10.5974
▁déploiement	-10.5979
abattement	-10.598
▁connexion	-10.5981
▁utilisée	-10.5981
▁Can	-10.5981
▁réussite	-10.5982
▁conserve	-10.5986
▁ordres	-10.5986
▁chère	-10.5987
▁JO	-10.599
▁utilisant	-10.5992
▁invité	-10.5994
▁Faut	-10.5996
▁geste	-10.6002
▁Quelques	-10.6005
▁périmètre	-10.6005
vision	-10.6007
▁côtés	-10.6015
automne	-10.6017
▁Client	-10.6019
acheteur	-10.6021
▁mou	-10.6021
adoption	-10.6026
▁nettement	-10.6026
▁seniors	-10.603
OIS	-10.603
ker	-10.6034
▁retenu	-10.6034
▁autonomes	-10.6034
93	-10.604
lev	-10.6041
▁parallèle	-10.6047
▁Dou	-10.6047
▁exonération	-10.605
ys	-10.6055
▁Casino	-10.6055
inscription	-10.6056
Bas	-10.6057
▁cumul	-10.6057
Iran	-10.606
▁Première	-10.606
▁2,2	-10.6061
euses	-10.6062
ple	-10.6064
▁dizaine	-10.6067
▁éventuellement	-10.607
arrêté	-10.607
lio	-10.6071
▁Déclaration	-10.6071
▁intérieur	-10.6076
rés	-10.6077
▁agréé	-10.6078
▁langue	-10.6079
▁concerné	-10.6079
échelle	-10.608
▁Net	-10.6081
▁étapes	-10.6083
▁carbone	-10.6085
▁front	-10.6086
▁banquier	-10.6087
▁sanitaire	-10.6088
▁trou	-10.6088
▁scientifique	-10.6092
ige	-10.6094
▁pouvait	-10.6096
▁reprend	-10.6097
▁factures	-10.6099
uch	-10.6102
▁French	-10.6116
▁renouvellement	-10.6118
eaux	-10.6119
géné	-10.6123
▁vraie	-10.6124
▁métropole	-10.6127
Seine	-10.6128
▁PC	-10.6138
▁TF	-10.614
▁Inc	-10.614
▁Venezuela	-10.6141
▁Jeune	-10.6146
▁Vu	-10.6153
...),	-10.6153
avion	-10.6153
▁inscrit	-10.6158
▁Carlos	-10.6159
uv	-10.616
▁litige	-10.6161
TO	-10.6165
mor	-10.6168
▁désir	-10.617
approche	-10.6171
▁0,3	-10.6172
▁relativement	-10.6172
aliser	-10.6173
-12	-10.6174
▁Espagne	-10.6177
▁monter	-10.6178
▁témoigne	-10.618
▁horizon	-10.6181
▁partis	-10.6181
▁Impôts	-10.6183
▁FCP	-10.6185
▁Telecom	-10.6186
▁cesse	-10.6186
71	-10.6186
phi	-10.6188
▁divorce	-10.6188
▁suffisamment	-10.6191
▁mené	-10.6192
▁mécanique	-10.6194
▁Mélenchon	-10.6197
-0	-10.6202
érant	-10.6203
▁lever	-10.6203
▁sub	-10.6204
▁avocat	-10.6208
▁mouvements	-10.6209
▁individuel	-10.6212
▁probablement	-10.6213
û	-10.6213
ôme	-10.6216
▁Credit	-10.6216
▁adaptés	-10.6221
▁classé	-10.6223
NA	-10.6225
▁détaille	-10.6227
outil	-10.6228
uses	-10.623
▁emprunteurs	-10.623
▁réservé	-10.6237
immeuble	-10.6238
ombre	-10.624
▁promesse	-10.6241
▁portes	-10.6242
▁remontée	-10.6242
▁violences	-10.6242
▁maintenu	-10.6245
aéroport	-10.6246
▁Espace	-10.6246
dra	-10.6247
▁exprimé	-10.6247
▁Etat	-10.6247
▁semblent	-10.6252
éditeur	-10.6253
▁racheter	-10.6257
sy	-10.626
▁CM	-10.6261
▁coté	-10.6261
▁masse	-10.6261
▁extrêmement	-10.6261
▁plafonné	-10.6264
▁Question	-10.6268
anti	-10.6268
▁gère	-10.6272
▁pourcentage	-10.6272
▁régulateur	-10.6275
monnaie	-10.6277
américain	-10.628
▁destinée	-10.6284
oise	-10.6284
dent	-10.6285
bes	-10.6285
▁accordé	-10.6285
▁modifié	-10.6287
île	-10.6287
▁diversification	-10.6293
▁1,6	-10.6295
gent	-10.6296
▁Mal	-10.6298
▁confié	-10.6298
▁%).	-10.6302
Observatoire	-10.6303
▁accélérer	-10.6305
Internet	-10.6306
01/2019	-10.6307
▁(«	-10.6309
▁préciser	-10.631
▁bank	-10.6312
▁chargée	-10.6312
▁conformité	-10.6314
▁assistance	-10.6316
▁SEPA	-10.6321
▁adaptées	-10.6325
volu	-10.6327
mêmes	-10.6327
▁mutation	-10.6329
▁écran	-10.633
▁compétitivité	-10.6335
vel	-10.6338
▁annoncée	-10.6338
▁allant	-10.6339
▁rejoint	-10.634
▁Ensuite	-10.6343
▁arrivée	-10.6347
Atlantique	-10.6348
▁vocation	-10.6349
lar	-10.635
▁appar	-10.6355
▁art	-10.6356
asse	-10.6358
▁Economie	-10.6359
exonération	-10.636
▁déchets	-10.636
▁commissions	-10.6362
▁renforce	-10.6364
▁présentée	-10.6366
ich	-10.637
▁vide	-10.6382
▁notion	-10.6382
table	-10.6382
▁auparavant	-10.6383
▁précisément	-10.6384
▁souhaité	-10.6385
▁stage	-10.6386
fu	-10.6386
din	-10.6388
▁patient	-10.6389
nis	-10.6391
▁intéressante	-10.6392
▁partager	-10.6393
/3	-10.6393
▁issus	-10.6394
▁Patrimoine	-10.6394
▁parlementaires	-10.6396
▁restaurant	-10.6399
▁oui	-10.6402
▁remboursements	-10.6402
▁consacré	-10.6412
▁cash	-10.6413
▁Mat	-10.6414
avocat	-10.6417
Alpes	-10.642
▁trafic	-10.642
▁impots	-10.6421
▁Chez	-10.6421
ges	-10.6422
▁susceptibles	-10.6427
dia	-10.6428
▁te	-10.6429
affiche	-10.6429
riez	-10.6434
/10/	-10.6436
▁FO	-10.644
nez	-10.644
▁98	-10.645
▁attestation	-10.6453
▁comprise	-10.6455
▁reçoit	-10.646
utilisateur	-10.646
met	-10.6461
▁constaté	-10.6465
▁mur	-10.6471
MC	-10.6473
isées	-10.6479
▁maîtrise	-10.6484
▁fils	-10.6488
adapter	-10.6495
étaient	-10.6495
▁résume	-10.6498
001	-10.6498
▁ultra	-10.6504
ara	-10.6504
▁militaires	-10.6505
▁Aide	-10.6508
▁délégation	-10.6512
▁GENERAL	-10.6515
▁faux	-10.6516
▁trajet	-10.6518
éra	-10.6519
▁handicap	-10.6519
▁définitivement	-10.652
▁partenariats	-10.652
▁jardin	-10.6521
▁missions	-10.6523
▁Bal	-10.6525
▁1,1	-10.6526
▁Bio	-10.6528
▁arrivé	-10.653
▁Vers	-10.653
SN	-10.6532
▁quinze	-10.6533
pot	-10.6537
occupant	-10.6541
▁MONT	-10.6544
▁mineur	-10.6547
@	-10.6547
appareil	-10.655
hy	-10.6551
▁rencontré	-10.6553
indépendance	-10.6554
▁constitutionnel	-10.6555
▁tenté	-10.6557
quet	-10.6558
▁dépassé	-10.6559
▁eff	-10.6559
clé	-10.6561
▁transformer	-10.6564
84	-10.6564
▁sondage	-10.6565
▁allons	-10.6567
bourg	-10.6568
ili	-10.6569
▁scooter	-10.657
▁perçus	-10.6577
».	-10.6586
ores	-10.6591
▁réductions	-10.6591
mique	-10.6597
▁4%	-10.66
▁rou	-10.6602
ié	-10.6602
▁prochains	-10.6606
▁vaste	-10.6608
ANS	-10.6608
▁Seule	-10.6609
▁possibilités	-10.6612
yl	-10.6612
▁comptable	-10.6614
▁défend	-10.6616
▁accords	-10.6617
esse	-10.6618
tou	-10.662
▁convaincre	-10.662
2010	-10.6621
▁montrer	-10.6622
▁connue	-10.6624
améliorer	-10.6625
▁déclare	-10.6625
▁ri	-10.6626
-3	-10.6627
▁franchi	-10.6631
▁40%	-10.6633
▁refuse	-10.6635
IV	-10.6636
aval	-10.6637
▁village	-10.6643
▁réellement	-10.6644
▁engagée	-10.6648
▁blockchain	-10.6652
▁officielle	-10.6653
▁BO	-10.6655
uti	-10.6658
▁croire	-10.6658
for	-10.666
▁consensus	-10.6661
▁diffusion	-10.6661
autorité	-10.6662
▁dégâts	-10.6671
ifié	-10.6674
cat	-10.6674
hébergement	-10.6675
cours	-10.6678
▁robot	-10.6679
▁forum	-10.6683
▁faiblesse	-10.6687
lique	-10.6687
▁2009,	-10.6688
91	-10.6693
ek	-10.6697
Amérique	-10.6698
▁fréquent	-10.6698
▁chasse	-10.6702
▁courte	-10.6708
▁privées	-10.6708
▁passée	-10.6711
▁conducteurs	-10.6711
institut	-10.6712
my	-10.6712
▁Bre	-10.6713
ram	-10.6716
▁Ghosn	-10.6716
▁Amérique	-10.6718
ttes	-10.6721
llier	-10.6722
immatriculation	-10.6722
▁réglementaire	-10.6724
▁effectivement	-10.6729
▁App	-10.673
▁saisie	-10.6731
▁payant	-10.6734
▁ski	-10.6735
▁Pendant	-10.6738
▁parfaitement	-10.6739
VE	-10.674
▁bande	-10.6742
ingénieur	-10.6748
▁volant	-10.6748
Marne	-10.675
AE	-10.6751
▁utilise	-10.6752
AUX	-10.6752
mal	-10.6754
79	-10.6754
▁VAL	-10.6762
▁infrastructures	-10.6762
▁souligné	-10.6764
▁US	-10.6764
▁Nice	-10.6765
▁ha	-10.6766
▁Daniel	-10.6767
adhésion	-10.6775
▁Nissan	-10.6778
▁commentaire	-10.6778
▁averti	-10.6782
AIS	-10.6785
▁Agences	-10.6786
égo	-10.6787
▁Définition	-10.6787
zz	-10.6788
94	-10.6789
rom	-10.679
▁indice	-10.6793
▁tourisme	-10.6794
▁BTP	-10.6796
▁k	-10.6797
infraction	-10.6798
▁montrent	-10.6799
arm	-10.6806
ète	-10.6811
▁gérant	-10.6813
▁Matmut	-10.6814
▁accessibles	-10.6815
▁ouverts	-10.6816
▁appliquée	-10.6819
▁exonéré	-10.6821
▁voici	-10.6821
▁conseillé	-10.6823
Hexagone	-10.6826
org	-10.6828
fic	-10.6828
▁encours	-10.6828
ado	-10.6831
▁entraîne	-10.6831
emment	-10.6835
▁baissé	-10.6835
expertise	-10.6836
agisse	-10.6837
▁adjoint	-10.6844
▁mobilier	-10.6844
▁tonnes	-10.6844
UM	-10.6845
oud	-10.6847
ico	-10.6849
SF	-10.685
fait	-10.685
éo	-10.6856
▁froid	-10.6856
annulation	-10.6857
▁verte	-10.6859
Arrco	-10.686
▁présentent	-10.6863
▁rapprochement	-10.6864
▁ho	-10.6873
▁2008,	-10.6873
midi	-10.6873
▁cuisine	-10.6874
mettre	-10.6879
OC	-10.688
▁composition	-10.6881
▁Bu	-10.6883
ition	-10.6886
▁conso	-10.6887
▁SFR	-10.6891
▁TPE	-10.6892
▁beau	-10.6899
▁actualités	-10.6904
rer	-10.6904
PP	-10.6906
▁écoute	-10.6907
▁obligé	-10.6907
▁gel	-10.691
▁visible	-10.6912
▁oublier	-10.6913
▁1,4	-10.6915
▁rappelé	-10.6921
▁complété	-10.6922
cus	-10.6925
pli	-10.6926
▁boîte	-10.6928
▁progressif	-10.6928
▁tentative	-10.6928
▁instance	-10.6929
▁Sport	-10.693
▁confronté	-10.6931
▁rares	-10.6937
ita	-10.6938
▁Nor	-10.6938
▁profite	-10.694
▁mécanisme	-10.694
dans	-10.6942
ième	-10.6943
▁Mou	-10.6945
▁anniversaire	-10.6948
ajouter	-10.6949
▁commentaires	-10.6952
▁Rapport	-10.6952
▁blanche	-10.6953
▁Jérôme	-10.6958
apprécie	-10.6959
Orient	-10.697
▁supprimé	-10.6973
arc	-10.6975
▁solaire	-10.6975
▁négocier	-10.6981
▁rachats	-10.6987
eo	-10.6987
▁pensez	-10.699
▁résilier	-10.6995
ft	-10.6995
ina	-10.6995
gée	-10.6996
▁chances	-10.6998
▁effectifs	-10.6999
BO	-10.7001
▁méthodes	-10.7001
▁quasiment	-10.7003
▁avantageux	-10.7008
▁mentionné	-10.7009
▁ménage	-10.7009
▁firme	-10.7016
▁facturé	-10.7019
▁cri	-10.7022
sson	-10.7024
DI	-10.7026
▁simples	-10.7027
▁traduit	-10.7028
mais	-10.703
formes	-10.703
▁boutique	-10.7031
matique	-10.7036
▁magazine	-10.704
court	-10.7043
▁voisin	-10.7047
▁énergie	-10.7054
page	-10.7058
▁envoyer	-10.7059
service	-10.706
nat	-10.7061
▁commercialisé	-10.7062
▁rejeté	-10.7064
▁débats	-10.7069
▁âgé	-10.7072
▁soutenu	-10.7076
▁trader	-10.7077
▁Montpellier	-10.7077
▁relais	-10.7078
▁exposition	-10.708
▁poursuivi	-10.708
▁Peut	-10.7084
duc	-10.7084
62	-10.7091
mann	-10.7092
▁réserves	-10.7092
▁dimension	-10.7098
ancienne	-10.7106
▁démocratie	-10.7107
Marc	-10.7111
▁prévenir	-10.7112
▁déf	-10.7116
rive	-10.7119
▁intègre	-10.7121
▁Theresa	-10.7123
▁Tribune	-10.7132
▁Bretagne	-10.7137
­	-10.714
▁conjoncture	-10.7141
▁mains	-10.7142
▁bat	-10.7144
▁quitte	-10.7144
éco	-10.7144
▁pistes	-10.7147
▁combien	-10.7147
▁liquidation	-10.7156
Air	-10.716
▁Axa	-10.7162
cent	-10.7162
▁dos	-10.7163
mobil	-10.7169
stru	-10.7171
▁Rhône	-10.7173
export	-10.7175
exposition	-10.7175
embauche	-10.7177
▁Va	-10.7178
exploitant	-10.7178
▁clinique	-10.7178
▁Résultat	-10.7186
▁cl	-10.7187
▁régionale	-10.7188
▁orienté	-10.7188
▁descend	-10.7192
▁Charles	-10.7192
fil	-10.7193
▁cache	-10.7193
gui	-10.7195
▁augmentée	-10.7197
▁parent	-10.72
cription	-10.7203
▁attractif	-10.7203
▁tué	-10.7204
▁déplacement	-10.7205
▁conscience	-10.7206
▁effectif	-10.7208
▁exception	-10.7209
▁Her	-10.7209
attente	-10.7212
▁remporté	-10.7212
▁fausse	-10.7218
ALL	-10.7219
▁alternative	-10.7223
Il	-10.7227
administrateur	-10.7228
édition	-10.7228
▁arriver	-10.7231
▁Bro	-10.7232
obtention	-10.7235
▁réglementaires	-10.7236
▁pari	-10.7236
▁plat	-10.7237
▁1,8	-10.7239
▁logistique	-10.7243
▁recommandations	-10.7245
▁Diapositive	-10.7249
/12	-10.7251
▁Défense	-10.7253
▁97	-10.7257
▁réduite	-10.7257
▁supérieurs	-10.7258
▁racheté	-10.7259
▁Pou	-10.726
time	-10.726
▁parvenir	-10.7261
▁tourner	-10.7263
▁modes	-10.7265
▁champion	-10.7267
▁disposez	-10.7268
▁Pascal	-10.7268
oût	-10.7271
puis	-10.7272
▁Présentation	-10.7273
▁tombe	-10.7275
▁Van	-10.7275
▁volet	-10.7275
▁TH	-10.7279
VI	-10.7286
rand	-10.7288
stre	-10.7289
▁obligatoirement	-10.729
GI	-10.7293
crédit	-10.7296
▁vais	-10.7302
/09/	-10.7302
ayant	-10.7305
▁fintech	-10.7308
▁Ki	-10.7315
▁degré	-10.7316
▁percevoir	-10.7318
▁séances	-10.732
▁(18	-10.732
CR	-10.7321
▁restauration	-10.7321
▁discussion	-10.7323
leur	-10.7323
ESS	-10.7324
ONU	-10.7325
tori	-10.7325
▁constitué	-10.7326
amende	-10.7327
▁accordée	-10.7329
▁répondu	-10.733
▁optique	-10.7334
igu	-10.7335
çant	-10.7337
▁baromètre	-10.7337
▁abonnement	-10.7339
▁peuple	-10.7341
▁Festival	-10.7343
▁Huawei	-10.7343
▁mutuelles	-10.7346
▁formations	-10.7348
apport	-10.7349
▁Cro	-10.7353
▁Près	-10.7356
bel	-10.7357
rise	-10.7359
▁analyses	-10.7361
associe	-10.7363
▁Gold	-10.7364
assi	-10.7365
▁auteurs	-10.7367
▁tabac	-10.7369
▁régionales	-10.7377
▁Moscou	-10.7381
ubli	-10.7381
63	-10.7381
ada	-10.7384
▁Gérard	-10.7384
hôpital	-10.7387
▁pierre	-10.7388
▁Dominique	-10.7392
▁Pri	-10.7394
▁Grèce	-10.7397
▁spécialisés	-10.74
▁Alpes	-10.7402
lit	-10.7404
▁matériels	-10.7404
▁soumises	-10.7406
▁Côte	-10.7408
ivité	-10.7409
bol	-10.7411
bar	-10.7414
▁Generali	-10.7415
ILLE	-10.742
▁15%	-10.7424
▁mettant	-10.7427
▁allez	-10.7429
▁Fo	-10.743
▁qualifié	-10.7432
▁comparable	-10.7435
TR	-10.7437
poli	-10.7439
bur	-10.7443
ND	-10.7444
▁assemblée	-10.7445
▁fé	-10.7448
▁italienne	-10.7448
▁suscite	-10.745
▁pre	-10.7453
▁périodes	-10.7454
▁nets	-10.7454
▁favorables	-10.7459
▁fruits	-10.746
▁norme	-10.7462
▁2010.	-10.7462
tter	-10.7463
main	-10.747
elli	-10.747
▁erreur	-10.7471
naires	-10.7473
▁enregistre	-10.7474
▁habit	-10.7475
écu	-10.7475
▁étoiles	-10.7476
▁communiquer	-10.7478
▁donnent	-10.7483
▁nourri	-10.7485
▁représenté	-10.7485
▁incendie	-10.7494
▁louer	-10.7495
▁intervenir	-10.7496
▁léger	-10.7496
▁échéant	-10.7498
▁terminé	-10.7498
ART	-10.7505
▁événement	-10.7506
▁secours	-10.7507
▁plafonnement	-10.751
▁Photo	-10.751
▁hôtel	-10.7512
▁rappeler	-10.7516
▁ralenti	-10.7517
▁publiés	-10.7519
▁remboursé	-10.7523
▁passagers	-10.7532
▁envie	-10.7535
▁apparaît	-10.7536
▁provoqué	-10.754
▁cru	-10.7545
▁refuser	-10.7546
▁imposé	-10.7547
▁effectuée	-10.7548
400	-10.7549
dont	-10.7552
ori	-10.7555
▁expliquer	-10.7564
jour	-10.7565
▁sportive	-10.7567
▁menacé	-10.7569
▁jugement	-10.7571
inscrit	-10.7571
▁Met	-10.7572
▁intéressé	-10.7574
▁maladies	-10.7574
honneur	-10.7578
▁pouce	-10.7579
▁vieillesse	-10.7579
vit	-10.7581
▁pèse	-10.7583
▁statuts	-10.7584
▁PTZ	-10.7584
▁stockage	-10.7584
▁participatif	-10.7585
▁riches	-10.7586
▁Julien	-10.7587
▁Fondation	-10.759
▁située	-10.7591
infrastructure	-10.7593
▁compromis	-10.7594
▁appareil	-10.7596
▁susceptible	-10.7596
▁liens	-10.7599
EU	-10.76
▁disent	-10.7601
▁corruption	-10.7604
▁refusé	-10.7606
▁traditionnels	-10.7606
▁décote	-10.7607
▁douane	-10.7607
▁investis	-10.7608
▁pat	-10.761
▁BOURSIER	-10.761
▁Manuel	-10.7611
sous	-10.7612
▁partielle	-10.7613
▁Android	-10.7614
▁enregistrée	-10.7615
uis	-10.7621
▁verre	-10.7622
▁marges	-10.7623
▁Arkéa	-10.7626
▁2,7	-10.7626
▁Dossier	-10.763
▁environnemental	-10.7631
▁imposition	-10.7633
▁Is	-10.7633
rique	-10.7635
▁MeilleureBanque	-10.7636
-20	-10.7637
ST	-10.7638
▁pilote	-10.7639
▁remarque	-10.7639
taux	-10.764
▁traditionnelles	-10.764
▁BPCE	-10.7641
▁réservés	-10.7644
▁diversifié	-10.7645
gur	-10.7647
MO	-10.7648
équi	-10.7648
▁créateur	-10.7651
▁Exemple	-10.7656
▁continu	-10.7657
▁peux	-10.7657
▁manifestations	-10.7657
▁Investir	-10.7658
▁producteurs	-10.7663
ération	-10.7666
▁découverte	-10.7666
soit	-10.7668
▁amélioration	-10.7669
▁travaillé	-10.7672
▁PDF	-10.7674
▁traditionnelle	-10.7674
▁Gilles	-10.7676
▁Mark	-10.7678
ieuse	-10.768
hab	-10.7681
▁ajoutée	-10.7682
ifiant	-10.7683
tch	-10.7684
▁négative	-10.7685
jacent	-10.7685
Mo	-10.7687
patri	-10.7695
▁Gen	-10.7695
▁Valls	-10.7698
▁Valeur	-10.77
▁sérieux	-10.7704
▁usages	-10.7705
▁morale	-10.7707
▁Néanmoins	-10.7708
▁voient	-10.7709
vienne	-10.7709
▁remet	-10.771
▁Congrès	-10.7714
activ	-10.7716
▁op	-10.7717
▁informer	-10.7717
▁collège	-10.7717
roues	-10.7718
▁Turquie	-10.7724
har	-10.7725
▁armé	-10.7726
▁centaine	-10.7726
▁certes	-10.7727
▁ru	-10.7728
▁scrutin	-10.773
▁repris	-10.7731
ements	-10.7733
▁interrogé	-10.7734
▁(7	-10.7737
▁Européenne	-10.7739
roy	-10.7742
▁1.000	-10.7748
▁dessous	-10.775
Loire	-10.7759
▁soirée	-10.776
▁juridiques	-10.7763
▁considère	-10.7765
▁Amundi	-10.7769
▁redressement	-10.7773
▁1990	-10.7776
▁radical	-10.778
▁ga	-10.7782
▁terrorisme	-10.7783
▁blocage	-10.7788
▁portrait	-10.779
TER	-10.7793
▁gare	-10.7795
▁fonciers	-10.7796
AND	-10.7797
▁Investissement	-10.7803
800	-10.7811
▁défendre	-10.7821
▁problématique	-10.7822
▁mod	-10.7824
▁JEAN	-10.7827
2018	-10.7827
▁Corse	-10.783
▁Peugeot	-10.7832
Denis	-10.7832
▁casse	-10.7833
aurait	-10.7835
sses	-10.7835
▁Article	-10.7835
intermédiaire	-10.7836
oux	-10.7837
▁Chambre	-10.7839
encadrement	-10.7844
▁syndicale	-10.7845
▁concrète	-10.7845
▁température	-10.7845
cra	-10.7849
▁externe	-10.7849
▁sciences	-10.7851
▁différent	-10.7852
▁pratiqué	-10.7852
▁probable	-10.7852
▁exclusivement	-10.7855
stat	-10.7857
▁fédération	-10.7862
▁goût	-10.7863
▁Big	-10.7864
▁considérée	-10.7864
▁revers	-10.7867
▁concession	-10.787
▁tablette	-10.7875
▁diplôme	-10.7878
▁interview	-10.7882
▁Très	-10.7885
▁voter	-10.7886
▁arrondissement	-10.7888
▁évolue	-10.7892
▁protégé	-10.7893
▁pétrolier	-10.7895
accent	-10.7895
contre	-10.7896
▁implique	-10.7897
fo	-10.7897
▁cré	-10.7899
éna	-10.79
▁Beau	-10.7901
▁contraint	-10.7903
▁humaines	-10.7904
▁baril	-10.7904
rig	-10.7904
▁présentant	-10.791
▁recommandée	-10.7913
▁rejoindre	-10.7915
Orange	-10.792
▁plastique	-10.7922
▁subvention	-10.7925
vre	-10.7925
-18	-10.7925
▁Date	-10.7927
▁Faire	-10.7927
▁facilité	-10.7928
▁futures	-10.7928
▁avenir	-10.7929
▁900	-10.793
▁électorale	-10.7932
▁stratégies	-10.7934
lait	-10.7937
▁financé	-10.7942
▁pollution	-10.7944
▁Chart	-10.7944
▁foi	-10.7945
▁regroupe	-10.7947
assurances	-10.7949
▁amis	-10.795
▁indemnisation	-10.7951
▁Risque	-10.7955
illage	-10.7956
uté	-10.7958
▁procédé	-10.7962
▁stratégiques	-10.7968
▁licenciement	-10.7968
▁SCI	-10.797
eng	-10.797
habitat	-10.797
▁http	-10.7975
▁Jeux	-10.7977
ommercialisation	-10.7977
mètre	-10.7979
▁Technologies	-10.798
OF	-10.798
coréen	-10.798
viendra	-10.798
cap	-10.798
œuvre	-10.7983
tur	-10.7984
▁Bru	-10.7987
▁utiles	-10.7992
▁professions	-10.7994
▁céder	-10.7998
cre	-10.7998
aliste	-10.8002
▁OPCVM	-10.8003
gne	-10.8006
▁2022	-10.8007
▁Place	-10.8009
Université	-10.801
▁majeurs	-10.8011
▁Gal	-10.802
▁traiter	-10.802
▁traitements	-10.8022
▁(3)	-10.8025
▁Luc	-10.8027
▁filiales	-10.8028
▁intégrer	-10.803
▁particulières	-10.803
▁vaccin	-10.803
emplois	-10.8031
▁tire	-10.8032
▁contrôles	-10.8032
eries	-10.8035
mant	-10.8036
▁structures	-10.8036
▁époux	-10.8037
▁Aucun	-10.804
NC	-10.804
▁Retour	-10.8042
▁Min	-10.8047
isez	-10.805
/03/	-10.8053
▁Ministère	-10.8055
interroge	-10.8058
▁anticipée	-10.8059
adaptation	-10.8062
▁impose	-10.8068
▁héritiers	-10.807
▁star	-10.8071
▁Vol	-10.8072
▁chacune	-10.8073
▁scientifiques	-10.8074
▁nu	-10.8074
▁World	-10.8076
▁faillite	-10.8076
pha	-10.8077
ède	-10.8079
▁cyber	-10.8079
▁Xavier	-10.8082
▁versés	-10.8086
▁ambition	-10.8086
▁champions	-10.8087
▁profits	-10.8088
▁remplacé	-10.8089
▁Ci	-10.8092
Angleterre	-10.8093
▁Rennes	-10.8093
iPhone	-10.8095
▁tableaux	-10.8095
omme	-10.8097
▁administratives	-10.81
IX	-10.8105
sseur	-10.8106
▁permanent	-10.8109
▁voulez	-10.8109
▁Ter	-10.811
alys	-10.8111
univers	-10.8114
▁existent	-10.8116
bra	-10.8122
alt	-10.8122
iz	-10.8125
▁Particuliers	-10.8125
expression	-10.8126
▁+1	-10.8129
gh	-10.8138
▁évaluer	-10.814
▁Cécile	-10.814
▁élargi	-10.8144
▁permanente	-10.8147
EAU	-10.8148
▁plates	-10.8155
▁Ser	-10.8156
▁opérateur	-10.8157
▁partagé	-10.8159
▁aurez	-10.816
▁robots	-10.8164
▁accueille	-10.8164
▁officiellement	-10.8166
▁Mexique	-10.8167
▁restructuration	-10.8167
▁For	-10.8169
▁marié	-10.8172
▁contrairement	-10.8174
▁rare	-10.8179
700	-10.8189
▁Tar	-10.8191
▁AV	-10.8194
/18	-10.8199
▁reconnaît	-10.82
▁0,6	-10.8211
▁iPhone	-10.8213
avais	-10.8216
▁poussé	-10.8216
▁BE	-10.8217
▁nationaux	-10.8219
événement	-10.8221
▁Fil	-10.8223
▁école	-10.8225
▁Développement	-10.8226
DC	-10.8227
gique	-10.8227
ima	-10.823
êtes	-10.823
introduction	-10.8232
▁CN	-10.8232
▁déterminé	-10.8232
lais	-10.8233
▁semi	-10.8234
▁pêche	-10.8236
▁universitaire	-10.8236
iss	-10.8238
▁quantité	-10.8239
▁performant	-10.8241
artiste	-10.8243
▁questionnaire	-10.8243
▁progresse	-10.8245
▁Contrairement	-10.8249
institution	-10.8251
▁prendra	-10.8256
▁animaux	-10.8256
engager	-10.826
▁recherches	-10.826
cité	-10.8261
▁formes	-10.8262
▁procureur	-10.8267
▁chaleur	-10.8267
▁exceptionnel	-10.8267
▁relance	-10.8269
▁96	-10.827
▁puissant	-10.8271
gal	-10.8273
▁fonctionnalités	-10.8278
▁93	-10.8278
▁Nu	-10.8279
▁marchand	-10.8279
▁Comptes	-10.828
▁confi	-10.8281
▁capteurs	-10.8282
Irlande	-10.8284
▁tarifaire	-10.8284
ibilité	-10.8285
▁chauffeur	-10.8288
essai	-10.8291
▁résumé	-10.8291
illy	-10.8293
incident	-10.8294
▁représenter	-10.8294
▁Lettre	-10.8294
▁agent	-10.8295
▁carré	-10.8295
▁renouvelables	-10.8296
▁surendettement	-10.8302
sive	-10.8303
▁chaînes	-10.8304
▁résident	-10.8304
▁joueur	-10.8307
blo	-10.8308
▁w	-10.831
RS	-10.8311
▁immeubles	-10.8315
Espagne	-10.8315
▁cotations	-10.8315
▁définitive	-10.8317
ASS	-10.832
▁imposée	-10.8324
shi	-10.8325
▁quinquennat	-10.8325
▁occupe	-10.8325
▁claire	-10.8328
▁fréquence	-10.8332
▁revoir	-10.8334
▁trouvent	-10.8339
▁comparé	-10.8339
emme	-10.8342
▁chauffage	-10.8343
▁poche	-10.8343
temp	-10.8344
▁disparition	-10.835
/7	-10.8351
▁offerts	-10.8352
▁fourniture	-10.8352
▁paye	-10.8354
mission	-10.8356
▁messages	-10.8357
▁Natixis	-10.836
▁ambitions	-10.8363
tron	-10.8363
▁cybersécurité	-10.8364
▁vieux	-10.8365
▁recommandation	-10.8365
▁bondi	-10.8367
essor	-10.8367
▁Intel	-10.8367
opinion	-10.8368
/06/	-10.8368
tout	-10.8369
▁avions	-10.837
▁relever	-10.837
▁permettront	-10.837
▁Ren	-10.8377
graph	-10.8377
az	-10.8382
▁devise	-10.8382
▁réussir	-10.8383
âche	-10.8383
▁violence	-10.8384
ssez	-10.8388
61	-10.8392
▁publier	-10.8394
▁MO	-10.8399
olo	-10.8401
QUE	-10.8402
▁Mer	-10.8405
▁Tu	-10.8406
▁tourne	-10.8406
ulaire	-10.8407
▁GROUP	-10.8409
00€	-10.841
▁frappe	-10.8412
▁principes	-10.8418
▁Acc	-10.8421
ISS	-10.8426
▁tester	-10.8433
▁locative	-10.8433
▁Claude	-10.8438
▁régional	-10.844
aventure	-10.844
▁paix	-10.844
▁And	-10.8441
ulation	-10.8444
▁hier	-10.8446
▁conformément	-10.8448
▁géo	-10.8449
▁reculé	-10.845
▁contribue	-10.845
▁91	-10.8451
▁pénale	-10.8453
alerte	-10.8454
5%)	-10.8459
▁couleurs	-10.8461
▁innovations	-10.8461
▁concernent	-10.8463
espèce	-10.8463
/12/	-10.8466
▁Alsace	-10.8468
bin	-10.8468
▁préserver	-10.8468
▁rival	-10.8469
▁automobiles	-10.8471
bas	-10.8476
appliquer	-10.8478
▁mensualité	-10.8483
▁Men	-10.8483
▁bloc	-10.8485
▁doté	-10.8486
▁opter	-10.8488
eff	-10.849
▁vendus	-10.8491
droit	-10.8496
ther	-10.85
▁familiales	-10.8501
▁employeurs	-10.8501
▁séparé	-10.8503
échec	-10.8505
gel	-10.8509
▁vertu	-10.8509
▁routes	-10.8509
▁fragile	-10.8511
▁réclamation	-10.8511
amour	-10.8511
▁courtiers	-10.8513
cade	-10.8514
▁avantageuse	-10.8514
2.	-10.8518
▁commis	-10.852
▁Rien	-10.8525
hu	-10.8526
81	-10.8529
▁simulateur	-10.8532
BE	-10.8537
▁province	-10.8546
équipement	-10.8546
▁Gre	-10.8547
fit	-10.8548
▁marquée	-10.8553
otte	-10.8559
▁théorie	-10.856
▁serez	-10.8562
▁CS	-10.8562
▁Épargne	-10.8565
▁cm	-10.8567
▁indépendante	-10.8567
▁acquisitions	-10.8572
▁mari	-10.8575
83	-10.8575
▁Ban	-10.8579
▁Association	-10.858
▁arrière	-10.858
▁figurent	-10.8582
▁MAIF	-10.8589
▁Mobile	-10.8591
▁dépendant	-10.8594
▁offrent	-10.8595
▁fichier	-10.8596
▁Cho	-10.8597
▁diminué	-10.8599
▁organique	-10.8599
▁spectacle	-10.8599
▁dépassement	-10.86
bout	-10.8605
▁convaincu	-10.861
▁moderne	-10.861
▁dégradation	-10.8613
▁Sc	-10.8615
▁pénal	-10.8616
ï	-10.8618
▁proposons	-10.8619
-11	-10.8619
▁rural	-10.8619
ling	-10.8622
▁Pinel	-10.8622
▁Obama	-10.8624
▁matériaux	-10.8624
▁mineurs	-10.8624
trans	-10.8625
▁bâtiments	-10.8625
égard	-10.8627
▁appli	-10.8628
posant	-10.8629
▁multiplié	-10.8635
▁manifestants	-10.8635
▁utilisent	-10.8637
▁compliqué	-10.8639
▁Gan	-10.864
gues	-10.8644
▁contribuer	-10.8646
▁polémique	-10.8649
▁CE	-10.8654
▁III	-10.8655
▁emb	-10.8659
▁Mastercard	-10.866
▁2021	-10.8667
annexe	-10.8669
▁détenus	-10.867
issez	-10.8671
▁Antoine	-10.8675
▁consécutive	-10.8678
▁énergies	-10.8678
▁humaine	-10.868
▁anonyme	-10.8681
▁Denis	-10.8684
▁personnalisée	-10.8687
▁Droit	-10.869
▁films	-10.8692
▁jaune	-10.8694
▁BR	-10.8697
▁dép	-10.87
échappe	-10.87
▁mérite	-10.8703
chon	-10.8703
press	-10.8704
▁dite	-10.8706
▁opposé	-10.8707
▁dangereux	-10.8708
▁frontières	-10.8711
▁diffusé	-10.8712
▁renseigner	-10.8714
▁Réforme	-10.872
▁motif	-10.872
▁compatible	-10.8721
▁préfecture	-10.8721
▁défunt	-10.8721
cker	-10.8725
attention	-10.8729
▁),	-10.8733
niste	-10.8733
▁générer	-10.8735
▁viol	-10.8736
▁the	-10.8738
▁mobilières	-10.8739
▁fondation	-10.8739
▁stop	-10.8743
▁conclusion	-10.8745
▁recommande	-10.8747
atoire	-10.875
▁provisoire	-10.875
▁suspension	-10.8752
interdiction	-10.8753
▁fallait	-10.8753
▁Nombre	-10.8754
instruction	-10.8755
sc	-10.8759
▁urbain	-10.876
▁quinzaine	-10.8761
CK	-10.8764
▁ami	-10.8764
▁prioritaire	-10.8764
ITE	-10.8767
extérieur	-10.8767
▁Tesla	-10.8768
▁99	-10.8769
ves	-10.877
▁notation	-10.8773
▁hausses	-10.8776
▁tech	-10.8779
▁manifeste	-10.8781
▁atouts	-10.8784
▁instantané	-10.8786
▁islamique	-10.879
▁réfugiés	-10.879
BOURG	-10.879
▁britanniques	-10.8791
▁moteurs	-10.8795
▁policiers	-10.8795
▁belge	-10.8796
oubli	-10.8798
▁ressemble	-10.88
▁Source	-10.88
▁visibilité	-10.8805
▁Invest	-10.8806
▁envoyée	-10.8809
▁seules	-10.881
▁fondée	-10.8811
indemnité	-10.8811
▁dénonce	-10.8812
/07/	-10.8814
▁compenser	-10.8815
▁librement	-10.8815
▁accepter	-10.8815
▁bulletin	-10.8819
▁effectue	-10.882
UX	-10.8826
▁machines	-10.8828
▁acquérir	-10.8833
cut	-10.8833
struc	-10.8835
accéder	-10.8837
▁justifie	-10.8837
fect	-10.884
agissant	-10.8847
▁ES	-10.8848
▁majoré	-10.8849
epargne	-10.8849
vez	-10.8853
-10	-10.8854
TRE	-10.8855
▁plancher	-10.8855
▁mensuels	-10.8857
ries	-10.8858
rim	-10.8858
▁gestionnaire	-10.8861
▁innovation	-10.8867
▁paraît	-10.887
▁auxquels	-10.8874
▁effectuées	-10.8875
ANGE	-10.8875
▁simplifier	-10.8884
anche	-10.8884
▁innovantes	-10.8886
nais	-10.8893
▁indemnisé	-10.8895
tta	-10.8899
TH	-10.89
▁suivent	-10.8903
▁dirigé	-10.8903
EST	-10.8906
▁livré	-10.8907
▁circuit	-10.891
▁Multi	-10.8911
angle	-10.8913
▁Media	-10.8915
▁décrit	-10.8915
SC	-10.8916
▁colère	-10.8917
▁Char	-10.8927
▁Publication	-10.8934
Ex	-10.8934
▁démo	-10.8935
▁satisfait	-10.8936
▁fédérale	-10.8937
▁choisie	-10.8939
▁Choisir	-10.8943
OPA	-10.8944
▁disparu	-10.8947
active	-10.895
:30	-10.8955
▁investit	-10.8957
▁financements	-10.8957
▁prévus	-10.8962
igno	-10.8964
kin	-10.8965
▁loisirs	-10.8965
▁progressive	-10.8967
▁fraction	-10.8969
▁000€	-10.8972
▁bénéficiant	-10.8973
▁PSG	-10.8973
placements	-10.8977
entend	-10.8979
▁Data	-10.898
ize	-10.8983
▁Fiscalité	-10.8984
mou	-10.8984
▁défis	-10.8984
intéresse	-10.8985
▁cédé	-10.8988
▁relèvement	-10.8989
▁sorti	-10.8989
▁dons	-10.8991
étend	-10.8998
▁don	-10.8998
▁fondamentale	-10.9002
▁bris	-10.9004
▁viagère	-10.9006
tenu	-10.9017
▁noire	-10.9017
▁souhait	-10.9019
▁titulaires	-10.902
▁intelligent	-10.9023
▁cahier	-10.9025
▁Er	-10.9026
▁nul	-10.9029
▁relancer	-10.9029
informatique	-10.903
lage	-10.9031
identification	-10.9033
▁GE	-10.9034
▁initiale	-10.9034
▁liquidités	-10.9035
▁Où	-10.9039
▁plaisir	-10.9043
Arabie	-10.9043
▁Rue	-10.9044
▁resté	-10.9048
▁hauts	-10.9049
évènement	-10.9051
▁travaillent	-10.9051
▁compose	-10.9053
▁VIDEO	-10.9054
▁censé	-10.9054
▁merci	-10.9062
▁café	-10.9062
▁vingtaine	-10.9066
▁Times	-10.9076
▁entré	-10.9077
▁tendances	-10.9078
▁venu	-10.9079
▁restera	-10.9079
▁passés	-10.9081
▁privilégié	-10.9082
Ro	-10.9083
/11/2018	-10.9084
▁aérienne	-10.9085
los	-10.9085
ink	-10.9085
▁sécuriser	-10.9087
ILL	-10.9088
▁suspendu	-10.9088
phon	-10.909
▁regarder	-10.9093
2011	-10.9097
▁Deutsche	-10.9099
▁tombé	-10.9099
DR	-10.9101
▁Sta	-10.9102
▁Inde	-10.9105
▁Ph	-10.9106
Ecole	-10.9107
▁PER	-10.9112
▁dérivés	-10.9117
▁Merkel	-10.9118
▁sac	-10.9121
▁chaud	-10.9123
tive	-10.9128
▁Certes	-10.9129
▁mine	-10.913
▁grosse	-10.913
▁envers	-10.9132
▁1980	-10.9136
▁sensible	-10.9138
oï	-10.9139
▁lois	-10.9144
▁Ford	-10.9145
char	-10.9146
▁Volkswagen	-10.9152
KLM	-10.9156
exploit	-10.9156
▁exerce	-10.9156
▁permettrait	-10.9157
imposer	-10.9159
Michel	-10.9162
ime	-10.9162
loy	-10.9164
▁malade	-10.9165
▁assistant	-10.9165
rier	-10.9168
▁syrien	-10.9168
▁concert	-10.9169
▁normale	-10.9169
▁volontaire	-10.9172
▁conservé	-10.9174
/05	-10.9174
▁station	-10.9175
▁1998	-10.9177
▁130	-10.9178
▁handicapé	-10.9178
▁Combien	-10.9178
▁file	-10.918
▁faisait	-10.9181
▁Henri	-10.9181
ison	-10.9182
ambassade	-10.9182
▁disponibilité	-10.9182
▁intermédiaires	-10.9187
▁adhérents	-10.9187
▁Parisien	-10.9187
▁parlementaire	-10.9187
étendre	-10.9191
▁reprises	-10.9194
oyer	-10.9195
▁courtage	-10.9195
riv	-10.9198
▁bénéficié	-10.9201
▁Côté	-10.9201
dant	-10.9202
▁NDLR	-10.9208
▁fonctionnaire	-10.9211
▁Tel	-10.9211
▁plomb	-10.9212
▁minimale	-10.9213
abandon	-10.9214
cueil	-10.9216
▁plonge	-10.9216
finance	-10.9216
▁extension	-10.9217
▁Long	-10.9218
▁allait	-10.9224
▁billet	-10.9226
▁attirer	-10.9226
▁créances	-10.9229
▁allocations	-10.923
assemblée	-10.9233
▁joué	-10.9235
▁réversion	-10.9237
▁admis	-10.9239
▁médiation	-10.9242
mond	-10.9243
▁2,8	-10.9243
▁clef	-10.9243
▁immédiate	-10.9244
▁Ke	-10.9245
explosion	-10.9247
rio	-10.9247
▁City	-10.9248
▁détenir	-10.925
▁Sapin	-10.9253
▁%),	-10.9254
▁avancé	-10.9254
▁RCS	-10.9254
▁ciblé	-10.9254
Re	-10.9255
gy	-10.9257
▁Document	-10.9257
▁dentaire	-10.9258
ama	-10.9259
MP	-10.9262
▁ter	-10.9267
▁appr	-10.9268
▁XV	-10.9269
▁domestique	-10.9269
▁mondiaux	-10.9269
▁rep	-10.927
▁déduire	-10.9271
imit	-10.9271
UC	-10.9272
▁couverts	-10.9272
vid	-10.9272
▁progresser	-10.9274
pan	-10.9274
▁différences	-10.9275
itude	-10.9275
▁établie	-10.9277
2)	-10.9277
▁épisode	-10.9278
▁1999	-10.9279
▁ordinaire	-10.928
▁Ceux	-10.9282
élu	-10.9286
▁CB	-10.9286
2008	-10.9287
lette	-10.9288
▁top	-10.9289
▁complètement	-10.929
œ	-10.929
ouille	-10.929
Organisation	-10.9296
uré	-10.9297
▁1970	-10.93
▁fixer	-10.9304
▁fuite	-10.9304
-2018	-10.9306
PH	-10.9307
rd	-10.9307
▁lunettes	-10.9308
▁graphiques	-10.9309
ctor	-10.931
▁Netflix	-10.9311
▁privilégier	-10.9313
▁compétent	-10.9315
▁multisupport	-10.9315
hiver	-10.9315
prendre	-10.932
lam	-10.9323
RON	-10.9324
gro	-10.9325
▁cote	-10.933
experts	-10.9335
▁notification	-10.9338
octobre	-10.9338
▁municipal	-10.9345
▁choisissez	-10.9346
▁supérieures	-10.9348
amortissement	-10.9349
▁retiré	-10.9349
▁réglementés	-10.9351
▁constitution	-10.9354
▁parfait	-10.9359
▁humain	-10.9362
▁appliquer	-10.9364
acier	-10.9364
▁neutre	-10.9365
▁parking	-10.9365
2017	-10.9366
▁2,4	-10.9367
▁optimiser	-10.9369
▁évaluation	-10.9369
▁60%	-10.9371
nge	-10.9373
▁CR	-10.9374
bond	-10.9376
ssier	-10.9378
incertitude	-10.9378
ieu	-10.9379
▁OR	-10.938
▁Surtout	-10.9382
▁Assur	-10.9383
▁gratuits	-10.9384
▁jou	-10.9387
▁ajouter	-10.9389
▁syndic	-10.9391
▁Blanche	-10.9391
▁difficiles	-10.9394
ical	-10.9398
▁essai	-10.9399
▁commissaire	-10.9399
▁3,8	-10.9405
▁dévoile	-10.9409
appui	-10.9409
▁électeurs	-10.9411
▁protégées	-10.9412
ettes	-10.9413
orienter	-10.9414
▁diplômé	-10.9415
▁démocratique	-10.9415
▁Cedex	-10.9415
▁gérants	-10.9418
lim	-10.942
cation	-10.9422
▁recharge	-10.9423
intention	-10.9425
▁accepte	-10.9426
▁confidentiel	-10.9426
▁initiatives	-10.943
olé	-10.943
vier	-10.9435
mic	-10.9436
ctua	-10.9437
▁Dernier	-10.9438
▁connecter	-10.9438
▁vins	-10.9438
étroit	-10.944
▁dépit	-10.9442
▁préjudice	-10.9442
gle	-10.9442
0,00	-10.9444
▁Super	-10.9444
▁relevés	-10.9445
ARE	-10.9449
▁favori	-10.9454
empêche	-10.9454
ousse	-10.9458
▁attaque	-10.9459
▁perçue	-10.9462
IGP	-10.9464
▁Concernant	-10.9465
▁évalué	-10.9467
▁analyste	-10.9478
▁Industrie	-10.9479
▁comparatif	-10.948
▁routière	-10.948
llement	-10.9481
▁es	-10.9482
▁armes	-10.9483
DF	-10.9484
▁2,3	-10.9487
▁NO	-10.9488
▁Affaires	-10.9488
▁CEL	-10.9488
▁influence	-10.949
▁festival	-10.9492
▁ouvrage	-10.9494
▁trace	-10.9495
▁négocié	-10.95
▁Pan	-10.9502
ENS	-10.9503
▁sais	-10.9504
▁stress	-10.9505
▁faudrait	-10.9507
▁Poutine	-10.9508
igné	-10.9509
▁94	-10.951
▁rat	-10.9511
▁décédé	-10.9512
▁Faites	-10.9512
▁Réunion	-10.9514
pul	-10.9515
▁audit	-10.9521
-6	-10.9521
▁occupé	-10.9523
▁Salon	-10.9528
▁douce	-10.9529
▁adoptée	-10.9531
▁accuse	-10.9533
▁ISF	-10.9533
▁Arnaud	-10.9535
▁survivant	-10.9539
▁tenant	-10.954
▁UBS	-10.9543
▁rassemble	-10.9545
bro	-10.9546
établit	-10.9549
▁récurrent	-10.9551
rité	-10.9554
▁CHA	-10.9555
▁Bonne	-10.9558
▁initialement	-10.9559
▁insiste	-10.9563
▁cinquième	-10.957
▁abonnés	-10.9571
▁immeuble	-10.9577
▁justificatif	-10.9577
▁accompagnée	-10.9578
▁entendre	-10.9579
▁terroriste	-10.9582
octroi	-10.9582
ning	-10.9585
▁revente	-10.9585
▁clos	-10.9585
ava	-10.9587
▁Californie	-10.9588
Fi	-10.9589
ifie	-10.959
nLe	-10.959
▁valider	-10.9594
▁meublé	-10.9595
astro	-10.9596
▁maintenance	-10.9598
▁payés	-10.9603
ash	-10.9604
hospitalisation	-10.9606
GA	-10.9606
▁Maroc	-10.9609
LES	-10.9609
▁neufs	-10.961
▁prête	-10.9613
▁validité	-10.9613
▁appels	-10.9614
▁Ol	-10.9617
mir	-10.9621
▁lève	-10.9623
▁Sony	-10.9623
▁renforcé	-10.9624
▁globalement	-10.9625
▁Impôt	-10.9625
▁retenir	-10.9625
▁roues	-10.963
attentat	-10.9633
▁satellite	-10.9633
▁quartiers	-10.9634
extension	-10.9639
▁leaders	-10.9641
▁Top	-10.9642
▁pharmacie	-10.9645
▁édité	-10.9645
▁Rome	-10.9649
▁légitime	-10.9649
▁divisé	-10.9651
▁foncier	-10.9653
▁Info	-10.9655
▁pneu	-10.9657
▁3,2	-10.9658
offres	-10.9658
▁promoteur	-10.9661
▁Là	-10.9666
▁Benjamin	-10.9669
▁autorise	-10.9671
▁Aussi	-10.9678
▁2)	-10.9682
▁paysage	-10.9683
▁appelée	-10.9684
▁emprunts	-10.9684
▁Communication	-10.9685
▁mutualiste	-10.9685
▁Anti	-10.9685
iqu	-10.9685
▁Droits	-10.9686
écrivain	-10.9689
DO	-10.9689
▁diversifier	-10.9689
▁Morgan	-10.9691
▁Asset	-10.9693
▁sécurisée	-10.9693
▁Sha	-10.9697
enjeu	-10.9697
▁considérable	-10.9698
atte	-10.9698
▁diversité	-10.97
▁BMW	-10.9701
▁2020,	-10.9701
▁résulte	-10.9705
▁CON	-10.9705
▁complexes	-10.9707
▁acompte	-10.9707
▁Simon	-10.9708
▁valoir	-10.9708
▁calme	-10.9712
cale	-10.9718
▁demandent	-10.9719
▁menu	-10.9721
▁lourd	-10.9723
▁échéances	-10.9724
▁engagés	-10.9727
▁Duflot	-10.9728
▁gouverneur	-10.9728
▁studio	-10.9728
▁entraîner	-10.9729
ENNE	-10.9733
▁parquet	-10.9734
grand	-10.9735
▁Exp	-10.9736
▁inégalités	-10.9736
▁réglementée	-10.974
▁libres	-10.9741
▁suffisant	-10.9741
▁voisins	-10.9746
▁atteinte	-10.9748
OCDE	-10.9749
▁poly	-10.9752
▁Télé	-10.9754
▁caché	-10.9754
▁Roche	-10.9755
assiette	-10.976
▁Dernière	-10.976
▁séparation	-10.9764
▁CGT	-10.9764
▁Nokia	-10.9768
ONG	-10.9772
▁Digital	-10.9772
▁rencontrer	-10.9773
▁garantit	-10.9774
▁125	-10.9774
▁régulière	-10.9775
▁conseille	-10.9775
UB	-10.9776
▁Ali	-10.9782
▁placée	-10.979
▁effective	-10.9791
▁riche	-10.9794
▁prévenu	-10.9795
déc	-10.9797
édi	-10.9797
▁violent	-10.9798
▁portent	-10.9799
put	-10.9802
/24	-10.9803
Argentine	-10.9805
▁testé	-10.9807
▁charbon	-10.9809
▁préoccupation	-10.981
étant	-10.9811
▁3,7	-10.9816
avère	-10.9816
▁mètre	-10.9817
▁contrôlée	-10.9817
bus	-10.9818
▁visé	-10.9819
▁(8	-10.9823
82	-10.9823
▁éventuelle	-10.9828
baisse	-10.983
▁Meilleur	-10.9832
▁Lu	-10.9835
▁défiscalisation	-10.9837
▁exemplaire	-10.9837
▁olympique	-10.9837
once	-10.9838
▁basse	-10.9839
▁établir	-10.9841
▁anticiper	-10.9843
▁bra	-10.9844
▁dommage	-10.9845
▁mesurer	-10.9847
retraite	-10.9849
▁agir	-10.9849
▁calculée	-10.9852
▁causés	-10.9854
ifi	-10.9862
▁incontournable	-10.9865
▁Tarif	-10.9865
▁Valley	-10.9866
▁médecine	-10.9868
▁Jan	-10.9871
▁Pol	-10.988
▁RH	-10.9886
▁Gui	-10.989
▁battu	-10.9891
ü	-10.9893
▁transformé	-10.9893
rel	-10.9895
hou	-10.9895
▁assurée	-10.9897
▁ob	-10.9897
▁achète	-10.9897
EY	-10.9902
▁1000	-10.9903
▁réagi	-10.9906
▁fur	-10.9906
▁forts	-10.9906
▁donnant	-10.9906
▁rayon	-10.9907
▁piste	-10.9907
ître	-10.9908
▁navigation	-10.9909
▁variations	-10.9909
▁accorder	-10.991
enceinte	-10.991
▁exonérés	-10.9913
▁veux	-10.9914
▁module	-10.9914
▁gendarme	-10.9916
▁écart	-10.9922
▁neuve	-10.9926
▁compensation	-10.993
▁protège	-10.993
▁Medef	-10.993
ting	-10.9931
étique	-10.9933
▁Michael	-10.9934
▁opportunité	-10.9935
▁introduction	-10.9938
quel	-10.9943
▁Taxe	-10.9943
▁revendique	-10.9943
▁session	-10.9946
▁mono	-10.9946
▁4,5	-10.9947
mois	-10.9947
▁modifications	-10.9948
▁FIP	-10.9951
effort	-10.9951
▁Tarifs	-10.9954
▁grise	-10.9954
pon	-10.9958
▁conservateur	-10.9958
▁distingue	-10.9962
▁AB	-10.9962
▁Bancaire	-10.9966
hôtel	-10.9967
2009	-10.9968
▁Commerce	-10.9974
▁participe	-10.9975
▁actuels	-10.9977
▁soin	-10.9977
ué	-10.9979
offrir	-10.9979
apprête	-10.998
▁profité	-10.998
▁attaques	-10.9981
▁déployé	-10.9983
▁Rendement	-10.9983
opter	-10.9988
▁sénateurs	-10.9988
fé	-10.9989
▁contractuelle	-10.9991
▁War	-10.9993
▁organise	-10.9993
▁tension	-10.9994
▁autrement	-10.9997
▁0,4	-10.9998
▁pleinement	-11.0001
▁Nasdaq	-11.0003
compte	-11.0004
▁terminal	-11.0007
▁Maduro	-11.0011
▁instruments	-11.0012
▁Bertrand	-11.0015
prime	-11.0018
▁Bourg	-11.0019
▁Financier	-11.002
▁André	-11.0021
ndu	-11.0021
CT	-11.0026
œil	-11.0029
▁adopter	-11.003
impose	-11.0035
▁transférer	-11.0036
cas	-11.0036
▁forêt	-11.0037
incendie	-11.0037
▁trouverez	-11.0038
Val	-11.0039
uri	-11.0039
▁GR	-11.0048
▁adresser	-11.0055
▁Tokyo	-11.0056
IO	-11.0057
▁reporter	-11.006
▁longues	-11.0062
immigration	-11.0065
obstacle	-11.0073
Bretagne	-11.0074
appliquent	-11.0076
▁Mu	-11.0078
▁four	-11.008
▁Lorsqu	-11.0081
▁Toujours	-11.0081
▁Don	-11.0082
▁finir	-11.0084
▁attaché	-11.0085
▁offrant	-11.0086
ssay	-11.0086
▁2009.	-11.0087
▁doublé	-11.009
▁fleur	-11.0092
▁peau	-11.0101
ok	-11.0103
temps	-11.0104
▁hybride	-11.0106
▁clauses	-11.0107
aff	-11.0109
▁étranger	-11.011
▁séduit	-11.011
acteurs	-11.0112
▁avocats	-11.0114
▁Pap	-11.0115
▁dessus	-11.0117
▁renforcement	-11.012
Boursier	-11.012
Ile	-11.012
abi	-11.0122
▁soyez	-11.0123
orama	-11.0129
▁Sanofi	-11.0131
▁extrait	-11.0135
▁doigt	-11.0135
▁réservation	-11.0135
MB	-11.0137
ologique	-11.0139
▁peser	-11.0144
▁tort	-11.0145
▁mène	-11.0147
▁Haut	-11.0147
tec	-11.0148
▁Ste	-11.0149
éti	-11.0151
pond	-11.0153
▁constater	-11.0155
▁universités	-11.0157
face	-11.016
▁style	-11.016
▁INC	-11.0161
▁urbaine	-11.0161
▁espaces	-11.0165
▁accompagnement	-11.0172
▁Sébastien	-11.0177
▁homologue	-11.0177
LD	-11.0178
▁USA	-11.0178
▁Entreprise	-11.018
▁raisonnable	-11.0181
▁souverain	-11.0185
▁obligataire	-11.0189
▁administrations	-11.019
autoroute	-11.019
▁palmarès	-11.0193
▁participants	-11.0193
ago	-11.0195
▁Kar	-11.0195
▁taxé	-11.0197
articul	-11.0197
optimisation	-11.0197
▁centimes	-11.0197
architecte	-11.0202
▁rétractation	-11.0202
Vie	-11.0205
▁former	-11.0207
ouest	-11.0209
UI	-11.0211
▁scolaires	-11.0211
003	-11.0213
▁satisfaction	-11.0214
acteur	-11.0216
François	-11.0216
▁email	-11.0218
huile	-11.0219
FE	-11.022
▁fibre	-11.0224
▁artisans	-11.0225
ologue	-11.0227
▁résidences	-11.0228
▁roule	-11.0229
▁anticipe	-11.023
viv	-11.0231
mit	-11.0232
den	-11.0234
▁Européens	-11.0238
▁Mc	-11.0242
gestion	-11.0242
AUD	-11.0245
▁Mag	-11.0245
▁déposée	-11.0246
dés	-11.0247
Nous	-11.0247
lation	-11.0249
▁recule	-11.0256
▁utilisées	-11.0256
▁USD	-11.0256
▁fri	-11.0256
▁Parce	-11.0258
▁réunions	-11.0258
▁credit	-11.026
comme	-11.0261
▁crowdfunding	-11.0264
▁jugée	-11.0265
▁stocks	-11.0266
▁passeport	-11.0266
Claude	-11.0267
▁Républicains	-11.0269
▁prudence	-11.0269
▁canal	-11.0271
▁récompense	-11.0273
arrive	-11.0273
▁Bureau	-11.0274
lay	-11.0275
▁circulaire	-11.0277
▁cookies	-11.0278
▁go	-11.0279
/4	-11.028
▁puissent	-11.028
▁contrôler	-11.0282
▁bis	-11.0282
▁Ligne	-11.0284
▁différente	-11.029
▁prévision	-11.029
▁CAR	-11.0292
▁Market	-11.0295
▁pen	-11.0295
▁bâti	-11.0296
THE	-11.0297
mise	-11.03
▁Nations	-11.0302
▁pouvons	-11.0302
class	-11.0302
card	-11.0304
▁TTC	-11.0305
▁engage	-11.0308
bot	-11.0309
▁appartient	-11.0311
▁bleu	-11.0311
▁Flo	-11.0311
▁régie	-11.0312
▁adressé	-11.0317
▁formulaires	-11.0317
▁modernisation	-11.0319
▁perçu	-11.032
▁AN	-11.0321
▁visiteurs	-11.0324
▁indiquer	-11.0325
▁ordonnance	-11.0326
ographie	-11.0327
utilité	-11.0328
▁justificatifs	-11.0329
▁soutenue	-11.0329
ignon	-11.0334
▁similaire	-11.0335
▁virtuel	-11.0337
▁amené	-11.0339
▁Neu	-11.0339
▁contributions	-11.0345
ji	-11.0347
▁promesses	-11.035
▁exactement	-11.035
▁6%	-11.0352
▁limitation	-11.0353
▁visage	-11.0355
eva	-11.0361
▁africain	-11.0363
▁remonte	-11.0364
équivalent	-11.0365
▁Ev	-11.0365
='	-11.0365
▁producteur	-11.0365
▁fiable	-11.0365
▁capables	-11.0366
▁Tim	-11.0367
lisé	-11.0368
ONS	-11.0368
ull	-11.0372
internaute	-11.0373
▁Nov	-11.0377
▁connaissances	-11.0379
▁tomber	-11.0383
▁musée	-11.0386
▁Paiement	-11.0387
/5	-11.0388
▁détenteurs	-11.0389
▁Lab	-11.039
▁sensibles	-11.0391
plan	-11.0392
▁GAULLE	-11.0396
▁déductibles	-11.0396
▁monétaires	-11.0398
endre	-11.0401
Amazon	-11.0404
▁témoignage	-11.0404
écri	-11.0408
▁remporte	-11.041
▁rond	-11.0416
▁justifié	-11.0417
bou	-11.0417
ata	-11.0417
▁axe	-11.0418
▁minute	-11.0418
prim	-11.042
▁Champ	-11.0421
▁identifiant	-11.0421
▁maritime	-11.0422
▁21/02/2019	-11.0422
▁enseignants	-11.0423
▁7%	-11.0424
▁courants	-11.0425
▁tempête	-11.0426
obligations	-11.0429
▁2,9	-11.0429
▁cellule	-11.043
gl	-11.0434
▁cherchent	-11.0434
▁Assistance	-11.0434
-4	-11.0436
▁fabricants	-11.0437
▁cassation	-11.0437
▁définitif	-11.0442
▁litiges	-11.0442
pp	-11.0442
▁Concrètement	-11.0443
▁Luxembourg	-11.0443
▁attribué	-11.0444
aider	-11.0456
RU	-11.0458
▁Madrid	-11.046
▁taxi	-11.0461
électronique	-11.0464
▁réchauffement	-11.0464
dd	-11.0466
▁puces	-11.0466
▁10.000	-11.0471
▁accompli	-11.0471
▁destinées	-11.0473
▁loué	-11.0474
▁perception	-11.0477
▁confirmer	-11.0479
▁abus	-11.048
▁usines	-11.0481
▁comptabilité	-11.0481
alarme	-11.0482
▁rac	-11.0482
établir	-11.0487
tain	-11.0492
▁Didier	-11.0495
ATION	-11.0497
▁VER	-11.0497
▁Chiffre	-11.0498
▁déplacements	-11.0498
▁coalition	-11.0503
▁réside	-11.0505
▁Prélèvement	-11.0507
aime	-11.0509
▁étrangère	-11.0509
▁agriculteurs	-11.0516
▁fermer	-11.0518
▁préfér	-11.052
pas	-11.0521
gré	-11.0522
old	-11.0522
▁sang	-11.0523
▁diminue	-11.0523
▁naturelle	-11.0523
▁dates	-11.0524
local	-11.0526
▁Mieux	-11.0527
▁Vivendi	-11.0529
▁qualification	-11.0529
▁initiative	-11.0529
▁géographiques	-11.0532
plé	-11.0537
investissements	-11.0541
▁Aucune	-11.0545
▁PO	-11.0548
▁3,4	-11.0549
audiovisuel	-11.055
get	-11.0551
▁formé	-11.0552
▁déménagement	-11.0555
vic	-11.0557
▁précédentes	-11.0557
▁Mario	-11.0559
rac	-11.0559
olf	-11.0559
▁noms	-11.056
ERS	-11.0561
▁Bour	-11.0562
▁facteur	-11.0564
▁inscription	-11.0567
▁roman	-11.0572
▁djihadiste	-11.0572
oppose	-11.0573
▁transferts	-11.0574
▁imposer	-11.0575
▁espagnol	-11.0575
▁marchandises	-11.0576
▁formalités	-11.0578
opportunité	-11.0581
▁enjeu	-11.0584
▁2,6	-11.0587
▁ko	-11.0588
▁néobanque	-11.0589
▁confie	-11.0596
cadre	-11.0597
▁remonter	-11.0597
▁Arc	-11.0597
gra	-11.0598
▁plaide	-11.0598
graphie	-11.0601
▁Marché	-11.0602
▁sauver	-11.0603
▁pl	-11.0604
▁broker	-11.0607
▁identifier	-11.062
▁cumulé	-11.062
▁imposés	-11.0621
▁National	-11.0622
▁navire	-11.0624
▁1,9	-11.0625
inquiétude	-11.0627
éno	-11.063
▁émission	-11.0631
▁génère	-11.0633
▁introduit	-11.0633
▁pédagogique	-11.0633
’«	-11.0633
internet	-11.0635
▁lecteurs	-11.0641
▁épargner	-11.0642
▁absence	-11.0642
charge	-11.0646
▁Bat	-11.0649
pel	-11.0649
▁consolidation	-11.065
▁Mutuelle	-11.0651
▁conversion	-11.0651
▁créanciers	-11.0652
▁composant	-11.0652
▁bateau	-11.0655
▁universel	-11.0658
▁Numérique	-11.0659
▁significatif	-11.0659
▁disposant	-11.066
▁indi	-11.0662
▁varier	-11.0662
▁écrans	-11.0664
ménage	-11.0666
▁documentaire	-11.067
▁graves	-11.067
▁80%	-11.0672
▁touristique	-11.0673
▁Autrement	-11.0673
▁(20	-11.0674
Calais	-11.0675
script	-11.0676
▁avenue	-11.0677
▁recouvrement	-11.068
▁participé	-11.0681
▁souffre	-11.0681
▁souscrite	-11.0682
▁accueilli	-11.0683
enseignant	-11.0684
▁potentiels	-11.0685
▁impliqué	-11.0685
▁passées	-11.0687
▁entière	-11.0688
▁employé	-11.069
▁potentiellement	-11.069
▁rétro	-11.0692
▁lettres	-11.0692
▁vé	-11.0694
▁exportations	-11.0695
via	-11.0695
▁Eco	-11.0699
▁Sélection	-11.07
▁écrite	-11.0704
▁exige	-11.0705
▁générations	-11.0707
▁relevant	-11.0707
Marie	-11.071
way	-11.0716
▁évident	-11.0716
▁Américains	-11.0722
ffi	-11.0723
▁News	-11.0724
▁Cré	-11.0725
▁exercer	-11.0727
▁courante	-11.0727
▁emprunter	-11.0728
▁100.000	-11.0729
▁précieux	-11.0729
▁âgés	-11.0738
▁éventuels	-11.074
▁Nationale	-11.0742
▁Terre	-11.0744
instar	-11.0749
▁rassurer	-11.0751
▁Isabelle	-11.0751
▁SBF	-11.0751
-2016	-11.0752
SD	-11.0755
▁ajusté	-11.0756
▁Mai	-11.0757
▁Désormais	-11.076
gri	-11.0761
▁ver	-11.0761
ONNE	-11.0763
▁annulé	-11.0765
meur	-11.0767
▁camion	-11.0769
FL	-11.077
▁devons	-11.077
vage	-11.0773
▁championnat	-11.0774
Inde	-11.0776
▁affichent	-11.0777
▁éclair	-11.0778
▁rémunérations	-11.0782
▁mobilisé	-11.0783
▁garage	-11.0783
▁Siège	-11.0787
▁venue	-11.0789
▁entités	-11.0791
conducteurs	-11.0793
▁Mardi	-11.0794
▁Donc	-11.0797
▁artistes	-11.0799
isait	-11.0803
▁porteurs	-11.0804
▁systématique	-11.0805
phe	-11.0805
▁trompe	-11.0806
adapte	-11.0807
▁mét	-11.0808
▁Financement	-11.0809
▁légales	-11.0809
ussi	-11.081
▁coopérative	-11.0813
▁(10	-11.0815
▁voulons	-11.0818
▁fiches	-11.082
▁dénoncé	-11.0822
▁Dom	-11.0823
group	-11.0824
▁énorme	-11.0824
intéressement	-11.0824
▁déblocage	-11.0827
2%)	-11.0827
▁avancées	-11.0831
architecture	-11.0831
▁niches	-11.0831
▁obligataires	-11.0831
▁correction	-11.0834
▁Vit	-11.0835
Maritime	-11.0838
▁jeunesse	-11.084
▁commerçant	-11.084
▁Perp	-11.0846
▁360	-11.0846
▁Bitcoin	-11.0849
utilisateurs	-11.0851
▁Gilets	-11.0854
ook	-11.0855
▁ti	-11.0855
attache	-11.0857
insertion	-11.0858
crit	-11.0858
expert	-11.0858
▁FMI	-11.086
▁haussière	-11.0862
dri	-11.0866
▁culturelle	-11.0867
▁manager	-11.0871
▁intégrée	-11.0874
▁patrimoniale	-11.0875
avril	-11.0877
▁surveiller	-11.0877
spira	-11.0882
▁Personne	-11.0883
▁Chi	-11.0884
▁majoritairement	-11.0884
▁consolidé	-11.0885
6%)	-11.0885
vais	-11.0892
▁quête	-11.0892
▁logo	-11.0904
▁concentre	-11.0905
▁crime	-11.0906
▁2,1	-11.0909
ouvrage	-11.0911
▁Bloomberg	-11.0911
▁Palais	-11.0913
▁Dassault	-11.0916
▁Normandie	-11.0917
over	-11.0917
▁préfet	-11.092
▁IBM	-11.092
-2015	-11.0922
ache	-11.0924
ION	-11.0926
▁Israël	-11.0927
èrent	-11.0927
▁vendeurs	-11.0927
ève	-11.093
FP	-11.093
▁3,3	-11.093
▁CL	-11.0932
▁fixes	-11.0933
apparition	-11.0933
▁passent	-11.0933
▁circonstances	-11.0936
▁discipline	-11.0938
▁pharmaceutique	-11.0939
ACPR	-11.094
▁Barcelone	-11.0943
▁conservation	-11.0943
▁connaissent	-11.0947
▁fondé	-11.0948
Rhin	-11.0949
▁passion	-11.0949
▁consécutif	-11.0952
▁autonomie	-11.0953
▁sachant	-11.0953
▁approuvé	-11.0956
lég	-11.0959
▁séduire	-11.0961
▁glace	-11.0961
col	-11.0961
▁Jeudi	-11.0963
place	-11.0965
arra	-11.0968
▁défaite	-11.097
CG	-11.0971
▁fournit	-11.0978
▁souple	-11.0979
appellation	-11.0979
iver	-11.098
▁350	-11.0981
▁renoncer	-11.0981
▁Barclays	-11.0983
tag	-11.0985
▁My	-11.0987
écoute	-11.0988
▁Hi	-11.0989
BI	-11.0991
agrément	-11.0991
▁viande	-11.0992
▁inférieurs	-11.0992
3%)	-11.0995
▁(0	-11.0999
▁Red	-11.1005
▁institutionnels	-11.1005
▁2008.	-11.1006
▁2007,	-11.1006
▁pénalisé	-11.1008
▁signes	-11.1008
risque	-11.1015
▁General	-11.1017
▁Indi	-11.1017
aît	-11.1017
▁alliance	-11.1019
▁déterminée	-11.102
-5	-11.1021
cot	-11.1021
▁priori	-11.1026
▁Rio	-11.1027
1962	-11.1029
▁sinistres	-11.103
▁interlocuteur	-11.1035
ANCE	-11.1042
individu	-11.1045
▁couleur	-11.1048
▁seuils	-11.105
▁science	-11.1053
back	-11.1058
▁nationalité	-11.1059
oni	-11.1059
▁intellectuelle	-11.1061
▁organiser	-11.1064
erreur	-11.1066
▁étudié	-11.107
▁pot	-11.107
tenant	-11.1071
accession	-11.1072
▁Durée	-11.1073
▁horaires	-11.1073
▁téléphonie	-11.1074
▁Né	-11.1076
▁(9	-11.1078
anda	-11.1078
▁big	-11.1079
▁extra	-11.108
▁hé	-11.1081
▁Bor	-11.1081
igny	-11.1082
00000	-11.109
▁humains	-11.1091
▁AU	-11.1092
▁comptables	-11.1095
▁défaillance	-11.1097
▁étudiante	-11.1098
▁Seuls	-11.11
▁situés	-11.1101
▁Club	-11.1102
▁exécutif	-11.1102
▁Fre	-11.1102
1958	-11.1106
▁optimiste	-11.1106
▁représentation	-11.1106
▁tarification	-11.1106
▁géré	-11.1108
▁emploie	-11.1108
▁us	-11.111
▁partiellement	-11.1111
▁Encore	-11.1111
▁Alstom	-11.1112
▁One	-11.1115
▁échec	-11.1118
▁investie	-11.1118
soft	-11.112
▁permanence	-11.112
ella	-11.1121
1%)	-11.1121
▁concertation	-11.1122
▁regrette	-11.1123
étudiant	-11.1124
▁thermique	-11.1125
▁Vegas	-11.1125
▁3,6	-11.1126
▁réglé	-11.1129
ICE	-11.1131
▁porteur	-11.1132
TION	-11.1132
équipementier	-11.1134
▁Valérie	-11.1134
▁auxquelles	-11.1134
▁Mars	-11.1138
▁chambres	-11.114
▁Sar	-11.1141
implant	-11.1141
▁hommage	-11.1147
présent	-11.1148
lig	-11.1148
▁Att	-11.1148
idité	-11.1149
▁CC	-11.1149
bonne	-11.1152
▁étudier	-11.1153
▁score	-11.1158
▁neige	-11.1158
▁connais	-11.1158
cru	-11.1159
1961	-11.1159
▁Opération	-11.1162
Azur	-11.1163
-004	-11.1163
▁développée	-11.1165
encontre	-11.1165
▁chant	-11.1165
▁richesse	-11.117
▁assujetti	-11.117
▁sexuelle	-11.117
▁dirige	-11.1176
▁appartements	-11.1177
▁Yo	-11.1178
▁symbolique	-11.118
▁Lundi	-11.118
▁spectaculaire	-11.1184
▁Fra	-11.1185
▁réagir	-11.1188
▁féminin	-11.1189
▁autorisée	-11.1192
▁offerte	-11.1192
▁internes	-11.1193
▁boursières	-11.1193
Je	-11.1193
gué	-11.1197
èvre	-11.1198
▁duquel	-11.1199
▁justement	-11.1202
▁apprécié	-11.1203
▁protocole	-11.1203
▁mixte	-11.1203
▁subir	-11.1205
▁coups	-11.121
▁conventions	-11.1211
▁affilié	-11.1212
▁statistique	-11.1216
▁Consultez	-11.1217
▁équilibre	-11.1218
attendre	-11.122
gramme	-11.1221
▁allocation	-11.1221
affichage	-11.1221
▁caméra	-11.1221
▁élevées	-11.1222
▁savent	-11.1225
▁montagne	-11.1226
itz	-11.1226
ipp	-11.123
▁exclusive	-11.1231
▁effort	-11.1233
▁attentats	-11.1237
ajoute	-11.1238
▁renseignement	-11.1239
▁réels	-11.1239
▁isolé	-11.124
▁0,8	-11.1241
▁fraudes	-11.1241
▁ingénieurs	-11.1242
7%)	-11.1244
▁bouton	-11.1247
animation	-11.1249
▁responsabilités	-11.1251
installer	-11.1253
▁dénomination	-11.1254
▁Pologne	-11.1254
ordinateur	-11.1254
▁carnet	-11.1257
▁successeur	-11.1258
▁réparations	-11.1263
▁née	-11.1263
▁pauvreté	-11.1264
▁oublié	-11.1264
Car	-11.1269
▁renforcée	-11.1269
▁statu	-11.127
abonnement	-11.1278
connect	-11.1281
▁Coll	-11.1282
▁consenti	-11.1286
▁Francisco	-11.1287
▁délit	-11.1288
▁CV	-11.1289
▁Four	-11.129
▁culturel	-11.1292
Économie	-11.1295
▁illustre	-11.1295
▁amiable	-11.1297
▁Suite	-11.1297
red	-11.13
▁aidé	-11.1302
▁box	-11.1305
▁bienvenue	-11.1305
effectue	-11.1308
▁Hy	-11.1308
▁Tre	-11.1308
lois	-11.1314
allemand	-11.1315
▁visa	-11.1318
▁110	-11.1321
▁cérémonie	-11.1323
▁soleil	-11.1324
▁constante	-11.1326
acquéreur	-11.1327
▁vigilance	-11.1328
▁Placement	-11.1329
▁combattant	-11.133
▁blessure	-11.1333
▁piscine	-11.1333
▁économistes	-11.134
▁Note	-11.1341
▁Quatre	-11.1342
▁Silicon	-11.1342
ogne	-11.1343
▁impayé	-11.1347
quin	-11.135
▁manuel	-11.1351
▁saoudite	-11.1352
▁inciter	-11.1354
▁Pacte	-11.1356
▁trimestriels	-11.1356
▁warrant	-11.1356
▁recense	-11.1357
▁délivré	-11.1364
mère	-11.137
tric	-11.1371
▁BOULEVARD	-11.1375
▁investisseur	-11.1375
▁secondes	-11.1377
habitude	-11.1379
▁contemporain	-11.138
▁haussier	-11.138
▁75%	-11.138
bu	-11.1383
▁critère	-11.1383
ung	-11.1385
▁engager	-11.1388
corp	-11.1388
oubliez	-11.1389
▁Smart	-11.1392
▁côte	-11.1395
rap	-11.1395
▁simplification	-11.1399
▁rembourse	-11.1399
▁messagerie	-11.14
▁symbole	-11.1403
▁pont	-11.1408
▁talents	-11.1409
▁Ceci	-11.1413
▁banquiers	-11.1414
yan	-11.1416
▁fla	-11.1416
RC	-11.1417
▁reconnue	-11.1417
▁profondeur	-11.1421
▁Contrôle	-11.1422
Com	-11.1424
▁tablettes	-11.1426
▁infos	-11.1427
▁contestation	-11.1427
▁majoritaire	-11.1427
▁réjoui	-11.1428
exclusion	-11.1428
▁Bleu	-11.1429
▁8%	-11.1429
▁Investment	-11.143
▁baisses	-11.143
▁habitudes	-11.1433
pir	-11.1434
affi	-11.1434
Mer	-11.1435
▁comportements	-11.1436
▁comptant	-11.1436
inspecteur	-11.1436
économiste	-11.1438
▁0,9	-11.1441
avaient	-11.1442
BR	-11.1444
▁néerlandais	-11.1446
▁garantis	-11.1448
▁certainement	-11.1449
▁commencent	-11.145
rupt	-11.1451
phone	-11.1451
SM	-11.1459
-001	-11.146
-7	-11.146
éta	-11.1464
▁montage	-11.1464
▁(@	-11.1465
influence	-11.1467
pol	-11.1468
rale	-11.1468
▁Dépôt	-11.1469
MS	-11.1471
▁suivie	-11.1473
▁notaires	-11.1478
▁Provence	-11.148
▁pensent	-11.1484
▁interactif	-11.1485
affect	-11.1486
▁Agirc	-11.1487
kh	-11.1488
▁Bleus	-11.1488
bla	-11.149
aujourd	-11.1491
▁distinct	-11.1493
▁arrêtés	-11.1494
▁joindre	-11.1498
▁Bac	-11.1502
archi	-11.1502
▁Inst	-11.1503
▁terrains	-11.1505
▁indemnité	-11.1507
▁Lagarde	-11.1508
▁converti	-11.1509
▁Pic	-11.1511
▁instauré	-11.1512
▁invalidité	-11.1517
▁Black	-11.1517
▁pénalités	-11.1526
▁positionnement	-11.1526
▁prouver	-11.1526
▁Beaucoup	-11.1527
▁collaborative	-11.1527
▁Cam	-11.153
▁Marchés	-11.1531
▁Compagnie	-11.1531
oche	-11.1532
▁Foncier	-11.1536
▁suffisante	-11.154
▁multiplient	-11.154
▁carrés	-11.154
entrepreneurs	-11.1541
▁amont	-11.1544
▁trade	-11.1545
▁chinoises	-11.1546
▁menaces	-11.155
▁Var	-11.1551
▁décennies	-11.1553
▁supporter	-11.1553
jou	-11.1554
▁observé	-11.1557
▁startup	-11.1557
appuyer	-11.156
▁bascule	-11.1561
▁souffle	-11.1565
▁publications	-11.1566
logie	-11.1569
▁renseignements	-11.1569
▁éventuel	-11.1569
▁navigateur	-11.157
▁contrainte	-11.1576
Australie	-11.1577
▁Actus	-11.1579
▁Sophie	-11.1579
duction	-11.158
Char	-11.1581
▁Portugal	-11.1589
▁recette	-11.1594
▁chuté	-11.1595
▁Kim	-11.1597
▁consacrée	-11.1598
ajustement	-11.1601
▁antérieur	-11.1603
▁ferroviaire	-11.1603
▁critiqué	-11.1608
▁sévère	-11.1608
▁deviennent	-11.1609
▁informe	-11.1612
▁fidèle	-11.1613
sauf	-11.1613
▁prochainement	-11.1615
RET	-11.1617
▁abouti	-11.1617
▁compétitif	-11.1618
▁regroupement	-11.1619
▁1997	-11.162
Épargne	-11.1621
▁compétence	-11.1622
Paul	-11.1622
▁prolongé	-11.1622
▁diffusée	-11.1624
▁récolte	-11.1627
1966	-11.1628
▁implanté	-11.163
just	-11.163
▁semestriel	-11.1632
audience	-11.1635
▁bond	-11.1636
identifier	-11.1636
▁attractive	-11.1637
systématiquement	-11.1641
▁fabriqué	-11.1642
▁Entretien	-11.1643
▁contribué	-11.1646
▁dresse	-11.1647
ccess	-11.165
Algérie	-11.1652
▁francs	-11.1653
▁parvenu	-11.1654
▁spécialité	-11.1655
Alliance	-11.1656
▁connus	-11.1659
▁Sciences	-11.166
▁massive	-11.1661
▁vive	-11.1664
Reuters	-11.1665
inscrire	-11.1665
▁libéral	-11.1665
▁varient	-11.1667
▁Affaire	-11.1667
▁...)	-11.1668
▁moral	-11.1668
éch	-11.1668
▁0,7	-11.1668
▁Windows	-11.1671
▁Médiateur	-11.1671
appli	-11.1672
▁grimpe	-11.1673
▁tax	-11.1673
▁dédiés	-11.1673
▁fixant	-11.1675
Louis	-11.168
▁accueillir	-11.168
émotion	-11.1682
▁Peu	-11.1683
▁Hors	-11.1684
▁développeurs	-11.169
▁Données	-11.1695
▁brute	-11.1697
▁MER	-11.1698
▁achevé	-11.1701
▁serre	-11.1703
▁synthèse	-11.1705
Asie	-11.1706
▁existant	-11.1707
▁marginal	-11.1709
lip	-11.171
▁Xi	-11.1711
▁décroche	-11.1714
▁remplace	-11.1715
▁Nico	-11.1716
▁estimations	-11.1719
▁Yves	-11.1724
▁frappé	-11.1724
▁paramètres	-11.1724
▁préférence	-11.1726
▁théâtre	-11.1729
▁expose	-11.1731
▁profonde	-11.1738
▁bébé	-11.1739
▁préavis	-11.174
titres	-11.174
▁rattaché	-11.1748
▁essence	-11.175
▁exploitation	-11.175
bank	-11.1752
armes	-11.1753
▁écoulé	-11.1754
▁déplacer	-11.1754
▁juges	-11.1759
▁chat	-11.176
▁quelqu	-11.176
▁publiées	-11.176
1964	-11.1761
Paris	-11.1761
yo	-11.1763
▁cessions	-11.1765
▁cède	-11.1767
▁notice	-11.1768
implantation	-11.177
▁Fer	-11.1771
▁1995	-11.1772
▁Financière	-11.1773
▁Francfort	-11.1773
▁félicite	-11.1773
▁coefficient	-11.1778
iro	-11.1778
▁Fiche	-11.1778
dem	-11.1779
▁reconnaître	-11.178
▁intervenu	-11.1784
nic	-11.1785
ward	-11.1786
▁réguliers	-11.1787
▁groupement	-11.1787
▁Edition	-11.179
▁relatifs	-11.1792
▁innovants	-11.1797
▁individuels	-11.1799
▁Mercredi	-11.1802
▁diplomatique	-11.1807
▁Imp	-11.181
▁Système	-11.1817
▁Monaco	-11.1817
▁anticipation	-11.1819
▁enveloppe	-11.182
▁contractuel	-11.1822
▁citoyenne	-11.1823
AGE	-11.1828
▁....	-11.1828
▁respecté	-11.1829
▁Prévoyance	-11.1832
▁restriction	-11.1832
Jean	-11.1833
▁étendue	-11.1834
atur	-11.1835
attractivité	-11.1837
▁dois	-11.1837
▁croit	-11.1838
Américain	-11.184
▁inscrite	-11.1841
▁aérien	-11.1841
▁retraité	-11.1842
▁demandeurs	-11.1844
▁chéquier	-11.1846
▁Calcul	-11.1847
glo	-11.1851
▁Seul	-11.1853
▁bu	-11.1855
▁soutient	-11.1857
320	-11.1858
▁généraux	-11.1861
▁variation	-11.1866
▁pétrolière	-11.1866
▁hyper	-11.1866
▁cliquez	-11.1871
▁LR	-11.1877
▁Obligation	-11.1881
▁budgétaires	-11.1881
▁patrons	-11.1882
▁Cinq	-11.1887
▁Prime	-11.1888
1956	-11.189
▁déclenche	-11.1891
▁obsèques	-11.1893
▁Han	-11.1896
/10	-11.1896
issi	-11.1899
▁drones	-11.1901
étais	-11.1904
▁trimestriel	-11.1905
▁assorti	-11.1906
▁finit	-11.1907
▁bel	-11.1908
▁Site	-11.1909
▁trentaine	-11.1911
▁valide	-11.1911
▁Message	-11.1911
▁promotionnelle	-11.1911
▁AT	-11.1915
AIRE	-11.1915
▁1.2	-11.1924
▁répondant	-11.1924
▁doubler	-11.1924
èche	-11.1925
▁pilotage	-11.1925
▁”	-11.193
▁déployer	-11.1931
Martin	-11.1932
▁Convention	-11.1935
▁sociétaire	-11.1935
▁quitté	-11.1937
▁célibataire	-11.194
▁unité	-11.1941
major	-11.1943
▁roi	-11.1945
▁issues	-11.1946
▁médicament	-11.1947
▁James	-11.1948
▁Mac	-11.1948
▁nouveautés	-11.1949
occupation	-11.1949
▁3,9	-11.1954
▁banlieue	-11.1955
▁Public	-11.1956
Manche	-11.1958
hier	-11.196
▁rapporté	-11.1965
▁simplicité	-11.1965
ambition	-11.1965
▁revend	-11.1969
▁news	-11.1971
▁personnalités	-11.1973
Cor	-11.1975
flé	-11.1981
▁gratuites	-11.1982
gg	-11.1983
▁idéal	-11.1984
incapacité	-11.1986
▁pape	-11.1987
▁guichet	-11.199
▁rendus	-11.1994
OG	-11.1996
▁cout	-11.1997
▁Electric	-11.2
▁installer	-11.2
▁exceptionnels	-11.2001
▁postale	-11.2001
▁cofondateur	-11.2002
▁installations	-11.2006
▁Mill	-11.2008
▁clic	-11.201
▁rarement	-11.2014
▁by	-11.2015
▁promouvoir	-11.2015
ARC	-11.2019
▁Avenir	-11.202
▁SICAV	-11.202
émetteur	-11.2022
observa	-11.2022
▁encadré	-11.2025
▁fourchette	-11.2025
▁Bla	-11.2026
▁comble	-11.2028
gor	-11.2028
▁termine	-11.2029
gard	-11.2029
▁Sicav	-11.203
▁prévient	-11.203
▁directoire	-11.2032
8%)	-11.2033
▁libératoire	-11.2035
▁enseigne	-11.2036
▁Canal	-11.2036
▁cost	-11.2039
actionnaire	-11.204
locataire	-11.2042
4%)	-11.2045
▁consultant	-11.2045
▁exclusif	-11.2046
box	-11.205
120	-11.205
▁musulman	-11.205
ssons	-11.205
▁Bill	-11.2054
▁célébr	-11.2055
▁Suède	-11.2056
▁Ham	-11.2058
▁NE	-11.2058
▁Vo	-11.2062
▁indicateur	-11.2069
▁CFDT	-11.2069
icule	-11.2071
▁Cannes	-11.2072
-8	-11.2074
▁explications	-11.2076
▁rebelle	-11.2076
▁pur	-11.208
▁recourir	-11.2081
▁déduit	-11.2081
▁concentrer	-11.2085
QU	-11.2088
▁Hausse	-11.2091
▁apprendre	-11.2095
professionnel	-11.2095
▁Fab	-11.2096
▁pilotes	-11.2096
▁privilégie	-11.2098
▁Mode	-11.2104
▁Argent	-11.2106
▁180	-11.2107
▁stables	-11.2107
▁locatifs	-11.2107
DD	-11.2109
▁crucial	-11.2111
▁FCPI	-11.2112
nière	-11.2112
▁récession	-11.2113
▁contactez	-11.2115
▁murs	-11.2116
▁commente	-11.212
▁assimilé	-11.2121
▁endroit	-11.2124
BL	-11.2124
▁massif	-11.2126
▁réflexe	-11.2126
▁congés	-11.2127
▁contient	-11.2131
▁(15	-11.2132
▁volontaires	-11.2134
▁états	-11.2135
▁traite	-11.2136
▁coffre	-11.2138
▁recherché	-11.2141
▁résoudre	-11.2141
▁transféré	-11.2141
Lo	-11.2144
ware	-11.2145
▁Méditerranée	-11.2146
▁mauvaises	-11.2151
▁personnage	-11.2151
▁LU	-11.2151
▁cerveau	-11.2151
uge	-11.2153
▁indications	-11.2158
▁métaux	-11.2159
II	-11.2162
▁meubles	-11.2162
▁fabrique	-11.2164
▁invite	-11.2164
égu	-11.2164
ACS	-11.2165
blé	-11.2167
▁inscrits	-11.2169
bio	-11.2169
aspect	-11.2171
▁MasterCard	-11.2172
▁intégral	-11.2172
IQUE	-11.2175
▁group	-11.2175
▁individuelles	-11.2175
pprovisionnement	-11.2177
▁époque	-11.2183
▁urgence	-11.2185
▁CENTRE	-11.2187
▁lourds	-11.2188
▁offert	-11.219
▁validation	-11.2192
▁Ça	-11.2192
pic	-11.2192
▁sécurisation	-11.2197
pass	-11.2198
▁chantiers	-11.2199
▁Achat	-11.2202
▁LTD	-11.2203
▁enquêtes	-11.2203
▁chercheur	-11.2204
informer	-11.2205
▁amateur	-11.2207
▁prestataire	-11.2215
▁conviction	-11.2218
▁variables	-11.2222
▁baptisé	-11.2223
▁ticket	-11.2223
▁erreurs	-11.2226
▁Ya	-11.2226
RAN	-11.2229
▁acquise	-11.2229
▁Rob	-11.2232
▁Produits	-11.2234
▁guère	-11.2235
▁craintes	-11.2235
▁solides	-11.2235
▁épi	-11.2236
▁faille	-11.2237
▁augmentent	-11.2239
▁bus	-11.2241
▁communs	-11.2241
ova	-11.2242
atteindre	-11.2251
ffe	-11.2251
▁Georges	-11.2252
▁solvabilité	-11.2253
TV	-11.226
▁incertitudes	-11.2261
▁Steve	-11.2263
▁IM	-11.2263
▁office	-11.2265
▁absolument	-11.2269
▁chien	-11.227
agenda	-11.227
▁retrouvez	-11.2271
groupe	-11.2272
AIN	-11.2273
gla	-11.2275
▁identité	-11.2277
▁160	-11.2278
▁métal	-11.2278
▁grosses	-11.2278
▁Vé	-11.2278
▁plu	-11.2279
▁bouleverse	-11.2279
**	-11.2282
essence	-11.2283
▁hebdomadaire	-11.2284
▁maternité	-11.2284
▁productivité	-11.2284
rial	-11.2288
▁Jeff	-11.229
acquitter	-11.229
dam	-11.2292
▁Déc	-11.2293
▁Transport	-11.2296
▁correspondent	-11.2297
▁vocal	-11.2298
actuel	-11.2298
pierre	-11.23
▁VTC	-11.2301
▁ème	-11.2305
▁éligible	-11.2309
gnant	-11.231
▁blanchiment	-11.231
PDF	-11.231
▁écho	-11.2315
▁assis	-11.2315
▁apparaître	-11.2318
▁venus	-11.232
▁Vallourec	-11.232
union	-11.2321
▁Airbnb	-11.2323
mani	-11.2324
▁théorique	-11.2326
▁Matignon	-11.2326
▁GRAND	-11.2326
▁2025	-11.2329
▁libérales	-11.2333
Rhône	-11.2334
udi	-11.2336
ö	-11.2336
▁inutile	-11.2336
▁défendu	-11.2336
vu	-11.2337
▁réclamé	-11.2341
▁Constitution	-11.2341
▁incluse	-11.2344
▁Audi	-11.2346
verbaux	-11.2346
▁Assemblée	-11.2349
▁amélioré	-11.2351
▁CFD	-11.2353
▁tâche	-11.2353
▁Coup	-11.2353
▁malus	-11.2354
▁substances	-11.2355
▁départementale	-11.2356
▁inconnu	-11.2362
▁vêtements	-11.2362
▁grille	-11.2363
isser	-11.2365
direct	-11.2366
▁pauvres	-11.2366
▁écosystème	-11.2367
TRA	-11.2367
▁équipé	-11.2368
▁émet	-11.2371
▁posée	-11.2371
▁EURO	-11.2371
▁Performance	-11.2372
▁Sauf	-11.2373
intéresser	-11.2374
▁signaux	-11.2377
inject	-11.2378
▁clics	-11.238
▁Vendredi	-11.2383
▁facturation	-11.2383
▁VR	-11.2384
▁soupçon	-11.2386
°1	-11.2388
oreille	-11.2388
pent	-11.239
▁Croissance	-11.2392
▁gré	-11.2392
communications	-11.2392
ingénierie	-11.2393
▁pause	-11.2393
▁prudentiel	-11.2396
1963	-11.2398
▁YouTube	-11.2398
▁holding	-11.2398
▁air	-11.2398
hésite	-11.2399
▁borne	-11.2399
-07	-11.2401
OUL	-11.2402
▁Force	-11.2403
indication	-11.2409
▁certification	-11.241
AST	-11.2412
▁patronat	-11.2413
▁Guy	-11.2413
▁rédigé	-11.2414
▁contesté	-11.2414
▁be	-11.2415
▁Lui	-11.2415
▁publicitaires	-11.2416
▁risquent	-11.2421
▁Ouest	-11.2427
▁hasard	-11.2429
▁abandonné	-11.243
alise	-11.2433
▁gu	-11.2434
▁maintient	-11.2435
▁SI	-11.2436
lum	-11.2439
▁précisant	-11.2442
▁Gaz	-11.2444
quette	-11.2444
▁Partners	-11.2445
▁brevets	-11.2447
▁territoriales	-11.245
▁Responsable	-11.245
emplacement	-11.2451
▁Financial	-11.2456
▁mathématique	-11.2456
▁incidents	-11.2458
organiser	-11.2459
▁sportifs	-11.2462
▁salles	-11.2465
UFC	-11.2469
arrêter	-11.2471
▁virus	-11.2472
▁asiatique	-11.2477
▁fichiers	-11.2477
▁coin	-11.2479
▁Décision	-11.2482
Di	-11.2483
▁concurrentiel	-11.2484
▁réfléchir	-11.2487
▁1960	-11.2489
1-1	-11.2497
▁positifs	-11.2497
▁alternatif	-11.2498
▁témoin	-11.2498
▁flou	-11.2501
▁Vosges	-11.2503
</	-11.2506
▁quarante	-11.2508
UV	-11.2509
graphique	-11.251
▁Cal	-11.2511
▁viv	-11.2512
▁collègue	-11.2513
▁positionné	-11.2513
▁requis	-11.2519
▁records	-11.252
▁externes	-11.2522
▁Figaro	-11.2524
▁transparent	-11.2524
pression	-11.2525
1954	-11.2529
▁Ici	-11.2529
▁BANQUE	-11.2529
▁arbitrages	-11.2537
acquérir	-11.2539
cord	-11.2539
▁Yahoo	-11.254
▁redevance	-11.254
▁rentes	-11.254
BC	-11.2541
▁Cu	-11.2542
▁bulle	-11.2544
▁Explications	-11.2545
▁intégrant	-11.2545
▁fasse	-11.2545
BERT	-11.2545
▁Actuellement	-11.255
▁prototype	-11.255
▁plaque	-11.2552
▁140	-11.2553
adhérent	-11.2554
▁Bur	-11.2555
▁rachète	-11.2555
▁fidélité	-11.2555
▁réputation	-11.2555
▁Recherche	-11.2556
▁70%	-11.2556
▁nominal	-11.2556
étal	-11.2556
▁Bay	-11.2561
▁rapprocher	-11.2562
occuper	-11.2564
▁flo	-11.2566
▁catalogue	-11.2566
▁atout	-11.2568
IGN	-11.2568
▁Social	-11.2571
▁Formule	-11.2572
lance	-11.2574
▁Cre	-11.2576
affectation	-11.2576
▁polluant	-11.2577
/10/2018	-11.2577
évaluer	-11.2577
▁installée	-11.258
▁posé	-11.2581
▁militants	-11.2581
▁enchères	-11.2589
asile	-11.259
▁sportif	-11.2592
▁magistrat	-11.2593
▁pacte	-11.2593
émergence	-11.2598
améliore	-11.2606
▁Open	-11.2606
▁candidate	-11.2608
PER	-11.261
▁Retraites	-11.2611
▁Dow	-11.2613
▁COR	-11.2613
▁défavorable	-11.2614
▁préparatoire	-11.2614
▁incluant	-11.2614
▁Ku	-11.2614
▁Reportage	-11.2615
ERN	-11.2618
exprimer	-11.262
▁éventuelles	-11.2621
▁universelle	-11.2625
▁glisse	-11.2627
▁gérés	-11.2627
▁DG	-11.2631
®	-11.2635
Franc	-11.2635
▁creuse	-11.2636
▁démocrate	-11.2637
▁intervenant	-11.2638
estime	-11.2638
▁intérieure	-11.2639
▁Innovation	-11.264
▁ouvrant	-11.2641
▁dites	-11.2642
▁LEP	-11.2642
rich	-11.2643
▁thématiques	-11.2652
'«	-11.2653
invest	-11.2655
▁Crit	-11.2656
chev	-11.2658
▁Hervé	-11.2658
▁Max	-11.2658
▁traditionnel	-11.2658
▁baissière	-11.2662
ZE	-11.2664
itch	-11.2665
▁existants	-11.2666
▁repos	-11.2666
▁concentration	-11.2667
▁engagées	-11.2668
écosystème	-11.2668
▁signaler	-11.267
▁Projet	-11.2673
▁banc	-11.2675
▁fonctionner	-11.2676
▁posez	-11.2676
▁adressée	-11.2681
▁Consommation	-11.2683
▁Tom	-11.2686
▁suffrages	-11.2689
▁EUROPE	-11.2689
▁chères	-11.2693
ppe	-11.2693
▁concernée	-11.2694
▁Officiel	-11.2694
▁précaution	-11.2697
▁documentation	-11.27
iva	-11.2701
carte	-11.2705
▁collectivité	-11.2707
▁sondés	-11.2711
prise	-11.2713
▁KB	-11.2714
▁Télécom	-11.2714
ception	-11.2715
▁dispense	-11.2716
▁silence	-11.2716
adresser	-11.2716
▁stations	-11.2716
isons	-11.2717
▁Star	-11.2723
▁placés	-11.2723
▁votée	-11.2723
échelon	-11.2726
▁Libre	-11.2727
▁souplesse	-11.2728
▁motivation	-11.2731
▁annexes	-11.2734
amine	-11.2734
▁inchangé	-11.2737
rance	-11.2737
▁publicitaire	-11.2738
▁rapporteur	-11.2741
▁découvrez	-11.2742
▁revu	-11.2743
▁sanctionné	-11.2746
▁maturité	-11.2748
▁économiste	-11.2753
Con	-11.2753
▁entrepreneur	-11.276
▁mille	-11.2761
▁dématérialisé	-11.2764
▁Saxo	-11.2764
génie	-11.2765
août	-11.2766
▁Déjà	-11.2769
▁Dia	-11.2769
▁iranien	-11.2769
▁Moins	-11.2776
▁plage	-11.278
huit	-11.2782
▁Eli	-11.2783
▁Bolloré	-11.2785
espérance	-11.2785
▁sinon	-11.2787
▁conclut	-11.2788
Pro	-11.2792
installe	-11.2792
9%)	-11.2793
9/1	-11.2793
▁ministériel	-11.2796
▁examiné	-11.2796
▁Goldman	-11.2798
▁souhaitant	-11.2799
▁mandataire	-11.2802
▁communiste	-11.2802
▁ROU	-11.2803
mari	-11.2804
▁toit	-11.2806
6.000	-11.2806
DG	-11.281
▁mm	-11.2811
▁Vente	-11.2811
ancienneté	-11.2812
appelle	-11.2813
éclairage	-11.2814
▁Micro	-11.2815
asso	-11.2817
arrière	-11.2819
Oise	-11.2819
point	-11.2822
LR	-11.2824
▁gestionnaires	-11.2827
▁vécu	-11.2828
▁métro	-11.2829
▁chimiques	-11.2834
duire	-11.2836
sans	-11.2836
verbal	-11.2837
▁vainqueur	-11.284
entrer	-11.2841
▁excédent	-11.2842
▁COP	-11.2842
▁inflation	-11.2842
uz	-11.2844
▁balle	-11.2845
▁Gouvernement	-11.2845
▁Dupont	-11.2845
▁milliardaire	-11.2846
▁intelligente	-11.2847
▁unies	-11.2848
▁rassemblement	-11.2848
▁sondages	-11.2849
analyste	-11.2852
croissance	-11.2852
ssait	-11.2853
▁appris	-11.2853
▁contenant	-11.2858
▁pousser	-11.2858
▁Hauts	-11.2863
▁accrue	-11.2865
▁Enquête	-11.2867
▁inspiré	-11.2867
loi	-11.2869
performance	-11.2869
investisseurs	-11.2869
▁Life	-11.2872
▁Stratégie	-11.2872
▁rectificative	-11.2872
▁communautaire	-11.2878
TEL	-11.288
▁consultez	-11.288
▁Jou	-11.2881
utilise	-11.2882
▁vigilant	-11.2883
▁4,4	-11.2883
Irak	-11.2886
▁facilite	-11.2886
▁prétendre	-11.2888
ula	-11.2888
▁Sociale	-11.2889
EMENT	-11.2889
▁répondent	-11.2889
▁maîtriser	-11.2894
▁Fonction	-11.2894
▁juridiction	-11.2895
▁sensiblement	-11.2897
UP	-11.2898
▁fund	-11.29
▁indiquant	-11.29
▁stationnement	-11.29
▁Log	-11.2903
▁Pensez	-11.2906
▁Dar	-11.2908
▁provenance	-11.2911
IEN	-11.2912
▁Solutions	-11.2914
pec	-11.2915
▁chômeurs	-11.2916
▁Ministre	-11.2916
▁vérité	-11.2916
▁importe	-11.2918
IoT	-11.2919
▁Vinci	-11.2922
ONE	-11.2922
EDF	-11.2923
lisation	-11.2923
▁Jones	-11.2925
▁domiciliation	-11.2927
▁réveil	-11.2927
▁routier	-11.2928
▁Mand	-11.293
intégrer	-11.293
▁tournant	-11.2936
▁UC	-11.2938
▁connectées	-11.2938
▁conflits	-11.294
▁Coopératif	-11.2944
▁Scellier	-11.2944
accompagner	-11.2944
▁Engie	-11.2944
orient	-11.2946
▁tâches	-11.2949
▁quotient	-11.2949
▁échelle	-11.2954
▁accélère	-11.2955
▁éthique	-11.2957
▁prononcé	-11.2957
▁correct	-11.2958
version	-11.2958
thérapie	-11.296
▁naturelles	-11.2963
▁nomme	-11.2967
RR	-11.2967
▁DI	-11.2969
▁Union	-11.297
invent	-11.297
▁syrienne	-11.2974
▁renonce	-11.2975
▁habituel	-11.2975
▁saut	-11.2978
▁détenteur	-11.2981
▁carton	-11.2981
▁tweet	-11.2982
égal	-11.2982
▁volé	-11.2987
pu	-11.2987
▁évolué	-11.2988
▁boissons	-11.2993
▁prenez	-11.2994
héritier	-11.2997
▁sortant	-11.2998
▁suscité	-11.2999
atelier	-11.3
▁prescription	-11.3004
▁tarifaires	-11.3007
▁Propos	-11.3008
▁Tru	-11.301
▁psychologique	-11.3021
inspire	-11.3023
▁vivent	-11.3027
▁attendus	-11.3031
▁suspect	-11.3032
▁précédemment	-11.3032
▁Autant	-11.3036
▁préconise	-11.3038
▁média	-11.3038
▁troubles	-11.304
▁voulait	-11.3043
▁boucle	-11.3044
▁honoraires	-11.3045
▁inquiétudes	-11.3045
▁aspects	-11.305
▁bruit	-11.3053
zy	-11.3056
accélérer	-11.3057
▁prétend	-11.3058
▁démocrates	-11.3059
▁réfléchi	-11.306
▁Lecture	-11.306
▁fondamentaux	-11.3065
▁réputé	-11.3065
▁recruter	-11.3067
▁évite	-11.3073
▁denrées	-11.3077
▁artistique	-11.3077
▁suppose	-11.3077
▁traders	-11.3077
▁neuro	-11.3078
▁grimper	-11.3079
▁BOFIP	-11.3082
▁décevant	-11.3082
▁conclusions	-11.3083
product	-11.3085
▁étage	-11.3086
▁détecter	-11.3088
▁Voilà	-11.3088
VRE	-11.3088
▁Pont	-11.3091
approbation	-11.3093
▁adapter	-11.3099
ero	-11.3102
▁ravi	-11.3103
▁automatisé	-11.3104
▁Qualcomm	-11.311
▁pénibilité	-11.311
▁simplifiée	-11.311
lab	-11.311
▁blessé	-11.3111
▁Six	-11.3113
▁condamnation	-11.3115
▁modeste	-11.3116
Si	-11.3116
▁industries	-11.3123
▁Gérald	-11.3127
▁smart	-11.3127
▁estimation	-11.3128
▁(+1	-11.3131
▁entraîné	-11.3132
océan	-11.3133
▁Australie	-11.3134
▁accéléré	-11.3138
▁CDD	-11.314
1/1	-11.314
▁indispensables	-11.3142
clair	-11.3143
équipements	-11.3144
▁Oddo	-11.3149
▁1973	-11.3149
▁provenant	-11.315
▁Tendances	-11.315
iot	-11.3155
▁Nickel	-11.316
ë	-11.316
BP	-11.316
ello	-11.3165
▁Logo	-11.3166
▁attribuée	-11.317
▁réclame	-11.3172
▁salue	-11.3176
▁triple	-11.3178
urbanisme	-11.3183
▁voilà	-11.3183
imo	-11.3185
▁fier	-11.3187
▁péri	-11.3188
accédant	-11.3188
▁sépare	-11.3189
▁Sachs	-11.3189
▁considérer	-11.319
▁animé	-11.319
▁Juppé	-11.3194
▁désigne	-11.3196
▁cessé	-11.3196
▁partagée	-11.3198
▁adultes	-11.3198
audit	-11.32
explo	-11.3201
▁Contact	-11.3202
▁ID	-11.3202
▁inquiète	-11.3203
historien	-11.3205
▁assurant	-11.3206
▁Tir	-11.3206
day	-11.3206
Bo	-11.3207
▁essentielles	-11.3207
▁installation	-11.3207
▁inédite	-11.3208
▁renouvelé	-11.3211
▁potentielle	-11.3213
▁Park	-11.3214
▁croissant	-11.3218
ENCE	-11.3219
▁décor	-11.3219
▁blessés	-11.3221
▁algorithmes	-11.3223
ajoutent	-11.3224
▁Gé	-11.3224
▁trésor	-11.3227
▁photographie	-11.3228
▁mag	-11.3236
▁brevet	-11.3237
▁Veolia	-11.3239
▁légumes	-11.3239
▁pomme	-11.3242
▁similaires	-11.3246
IPO	-11.3248
fondateur	-11.3251
▁créancier	-11.3254
azi	-11.3255
▁néo	-11.3256
change	-11.3263
▁africaine	-11.3264
▁verra	-11.3266
▁Shi	-11.3267
▁Gratuit	-11.3268
ICO	-11.3268
excellence	-11.3273
▁bru	-11.3274
amendement	-11.3275
▁signée	-11.3275
▁caméras	-11.3279
▁redevable	-11.3279
0/1	-11.3285
▁intégralement	-11.3287
380	-11.329
▁ambitieux	-11.329
▁utilisateur	-11.3291
ulé	-11.3294
▁3,1	-11.3294
▁emblématique	-11.3296
▁correctement	-11.3298
RF	-11.3302
▁sauvegarde	-11.3302
▁prononcer	-11.3305
▁RSI	-11.3306
▁prénom	-11.3314
▁affecte	-11.3317
vet	-11.3318
▁Fou	-11.3319
▁Ayrault	-11.3324
▁barrière	-11.3326
▁onze	-11.3328
▁médi	-11.3328
▁préparé	-11.3329
office	-11.3331
avérer	-11.3332
appréciation	-11.3336
▁prévoient	-11.3336
emballage	-11.3342
IERS	-11.3343
▁IS	-11.3344
▁complexité	-11.3347
UMP	-11.3349
▁Albert	-11.3351
▁attendent	-11.3353
▁Actualité	-11.3353
voyant	-11.3353
▁constatée	-11.3357
▁issu	-11.3357
▁conclure	-11.3357
▁William	-11.3359
héritage	-11.3359
▁financièrement	-11.336
4.000	-11.3361
▁imm	-11.3362
1969	-11.3364
▁conquête	-11.3365
pag	-11.3365
conseil	-11.3365
▁écarts	-11.3365
▁feront	-11.3371
▁pal	-11.3374
▁opinion	-11.3375
outre	-11.3377
clar	-11.3382
1971	-11.3382
▁déplore	-11.3382
france	-11.3383
▁Cloud	-11.3384
center	-11.3385
▁citoyen	-11.3387
▁macro	-11.3387
▁aime	-11.3388
▁cBanque	-11.3393
▁Grenoble	-11.3393
▁obtient	-11.3393
▁absolue	-11.3399
▁photographe	-11.3399
▁appartenant	-11.3399
▁émergent	-11.34
▁daté	-11.3402
▁Sont	-11.3405
▁Privée	-11.3408
▁déclarent	-11.3409
▁faculté	-11.341
▁langage	-11.3411
▁souvenir	-11.3412
attitude	-11.3417
GEN	-11.3417
▁contracté	-11.3417
▁partisans	-11.3418
▁demandeur	-11.3418
illo	-11.3419
▁gardien	-11.3423
RHO	-11.3426
organe	-11.343
▁maximal	-11.3433
▁câble	-11.3434
▁envisager	-11.3438
▁détruit	-11.3439
▁humanitaire	-11.3439
▁philosophie	-11.3439
▁Angela	-11.3444
▁comprenant	-11.3445
▁Connect	-11.3448
MENT	-11.3452
▁territoriale	-11.3461
▁efficacité	-11.3464
▁collecté	-11.3466
▁Début	-11.3469
of	-11.3469
dom	-11.347
▁empêcher	-11.3472
▁influe	-11.3473
▁450	-11.3473
▁croissante	-11.3475
NY	-11.3478
▁kg	-11.3479
▁Ger	-11.348
▁Vladimir	-11.348
▁composants	-11.3484
▁envisagée	-11.3484
6/1	-11.3489
▁laboratoires	-11.349
▁Safran	-11.3491
▁pèsent	-11.3494
▁2.000	-11.3496
▁Fu	-11.3497
▁5.000	-11.3498
respect	-11.3498
▁4,2	-11.3498
8/1	-11.35
▁opéré	-11.3504
toire	-11.3505
▁sénateur	-11.3507
istique	-11.3509
▁importations	-11.351
▁favorise	-11.351
▁(12	-11.3512
▁George	-11.3513
▁insuffisant	-11.3515
▁réglementé	-11.3516
▁demeurent	-11.3517
▁industrie	-11.3517
NET	-11.3517
▁confidentialité	-11.352
annoncer	-11.3522
5/1	-11.3523
rendu	-11.3526
▁Soc	-11.3527
▁arabe	-11.3528
▁disparaître	-11.3528
▁concentré	-11.3529
▁jouent	-11.3532
▁panier	-11.3532
▁VILLE	-11.3534
▁voyageurs	-11.3535
▁off	-11.3535
▁vieille	-11.3535
▁Terme	-11.3536
▁Historique	-11.3538
▁musical	-11.3538
8.000	-11.354
▁opté	-11.3542
:15	-11.3544
▁inconvénients	-11.3545
▁incertain	-11.355
▁Marche	-11.3551
▁élection	-11.3551
-2013	-11.3554
▁Cast	-11.3555
▁copropriétaires	-11.3556
▁interdiction	-11.3556
▁dotation	-11.3558
▁conversation	-11.3561
2-1	-11.3563
aucun	-11.3563
chez	-11.3566
▁confiant	-11.3566
▁Responsabilité	-11.3567
▁covoiturage	-11.3567
▁FRANCE	-11.3568
lès	-11.3569
▁Bilan	-11.357
▁transforme	-11.3573
▁mécanismes	-11.3573
▁espérer	-11.3573
▁Informations	-11.3575
▁Barack	-11.3575
▁Tal	-11.3578
▁accélération	-11.3581
▁pilier	-11.3581
▁concubin	-11.3585
▁lyonnais	-11.3585
▁japonaise	-11.3586
▁gouvernementale	-11.3587
▁RSA	-11.3589
▁MAC	-11.3591
▁pompe	-11.3591
▁qualifie	-11.3593
2016	-11.3594
▁Hong	-11.3596
élaboration	-11.3596
-2014	-11.3597
1984	-11.3597
▁désigner	-11.3599
▁reçues	-11.3599
Af	-11.36
▁semestriels	-11.3603
▁2030	-11.3605
▁servent	-11.3609
▁écr	-11.3609
▁automobilistes	-11.3615
TC	-11.3617
USD	-11.362
▁nécessairement	-11.362
▁[1]	-11.3626
▁médaille	-11.3626
▁Royal	-11.3626
ature	-11.3627
▁lycéens	-11.3628
▁1981	-11.3633
▁provoquer	-11.3636
▁équipés	-11.3637
▁Singapour	-11.3638
▁Versailles	-11.3638
Ferrand	-11.3638
aucune	-11.364
▁os	-11.3642
▁Dix	-11.3642
UNE	-11.3642
▁récompensé	-11.3644
▁courbe	-11.3647
▁remboursés	-11.3649
▁optimale	-11.365
usure	-11.3652
▁constituée	-11.3658
▁accordés	-11.3663
▁fui	-11.3664
crypt	-11.3665
▁Emprunt	-11.3665
▁gage	-11.3665
▁CHATEAU	-11.3667
▁1996	-11.3671
exécut	-11.3672
alli	-11.3673
▁accessoires	-11.3674
▁forcé	-11.3679
▁figurant	-11.3679
▁tentent	-11.368
vente	-11.3682
▁tellement	-11.3683
▁BAR	-11.3684
▁Location	-11.3686
▁expliquent	-11.3687
▁muni	-11.3696
▁fiscalement	-11.3696
▁démonstration	-11.3697
gou	-11.3699
▁issue	-11.3699
UG	-11.37
coup	-11.3701
▁avancée	-11.3702
▁australien	-11.3703
▁brutale	-11.3706
1,5	-11.3706
▁profitent	-11.3706
▁répression	-11.3707
▁Catherine	-11.3709
▁alternatives	-11.3709
nay	-11.3709
▁rendue	-11.3711
▁choisit	-11.3712
CES	-11.3715
▁rentrer	-11.3718
Ad	-11.3722
▁Radio	-11.3723
4/1	-11.3723
Savoie	-11.3723
▁livrer	-11.3723
entourage	-11.3725
▁configuration	-11.3726
▁mobiliser	-11.3729
▁Réserve	-11.3733
▁destruction	-11.3733
▁coûteux	-11.3734
2,5	-11.3736
▁déterminant	-11.375
▁Rendez	-11.375
▁tournée	-11.3751
encaissement	-11.3751
▁valoriser	-11.3752
▁interface	-11.3752
▁DOM	-11.3752
2/1	-11.3753
marché	-11.3757
▁pensée	-11.3759
▁entrant	-11.376
appuyant	-11.3762
▁LVMH	-11.3762
exprime	-11.3762
contract	-11.3763
▁ferait	-11.3764
▁massivement	-11.3768
Intérieur	-11.3768
▁recevez	-11.3768
▁étendu	-11.377
▁pure	-11.3773
excède	-11.3774
▁courantes	-11.3775
▁Live	-11.3779
instauration	-11.378
▁Toyota	-11.378
ney	-11.3781
▁Pacs	-11.3782
▁figurer	-11.3784
▁Bourgogne	-11.3786
location	-11.3788
▁causé	-11.379
▁minoritaire	-11.3792
uma	-11.3793
▁Philip	-11.3797
empreinte	-11.3798
▁réalisateur	-11.3798
▁bouteille	-11.3798
▁définies	-11.3801
▁intitulé	-11.3804
▁reproche	-11.3804
Tech	-11.3808
Ukraine	-11.381
▁avion	-11.3814
3/1	-11.3814
▁harcèlement	-11.3816
▁pluie	-11.3819
▁Blue	-11.3819
▁urgent	-11.3822
▁bref	-11.3822
▁transmet	-11.3822
▁prestataires	-11.3825
▁illimité	-11.3828
ANC	-11.3828
▁socio	-11.3828
▁RIB	-11.3831
▁canadien	-11.3831
▁détriment	-11.3834
▁conte	-11.3834
▁Evolution	-11.384
▁adversaire	-11.384
Oculus	-11.384
▁procure	-11.3842
▁réunit	-11.3842
▁essais	-11.3845
▁jury	-11.3846
▁détermination	-11.3847
▁She	-11.385
▁Blanc	-11.3852
▁composée	-11.3853
tom	-11.3856
▁Rencontre	-11.3857
Afer	-11.3858
▁passif	-11.3859
▁couronne	-11.386
INS	-11.3861
▁éditeurs	-11.3862
▁panneaux	-11.3863
igue	-11.3864
▁motifs	-11.3867
Que	-11.3877
prêt	-11.3879
7/1	-11.3879
▁Secteur	-11.3882
▁Pin	-11.3885
▁préfère	-11.3886
▁Mini	-11.3888
▁inclut	-11.3888
▁préférable	-11.3892
▁disque	-11.3892
▁Via	-11.3893
apporter	-11.3895
Christ	-11.3896
gna	-11.3899
▁OPCI	-11.3899
quée	-11.3901
▁planche	-11.3903
▁audition	-11.3905
▁tracker	-11.3906
▁Maur	-11.3906
OY	-11.3908
accélération	-11.391
▁minima	-11.3913
4,8	-11.3915
abo	-11.3915
▁vénézuélien	-11.3918
imprévu	-11.3918
190	-11.3918
▁Bâle	-11.3918
▁flat	-11.3919
▁Real	-11.3919
▁prélevés	-11.3923
▁Réseau	-11.3923
................	-11.3924
accélérateur	-11.3931
▁ROUTE	-11.3931
aliment	-11.3932
▁hospitalier	-11.3937
incidence	-11.3937
▁Genève	-11.3937
RIS	-11.394
▁dépassent	-11.3944
▁fum	-11.3947
Moselle	-11.395
expiration	-11.3955
▁évoluent	-11.3956
▁Gall	-11.3959
ANG	-11.396
Autriche	-11.3961
▁Express	-11.3963
▁définit	-11.3965
envole	-11.3965
▁Copyright	-11.3967
▁terminaux	-11.3967
débit	-11.3969
▁substance	-11.3969
▁franchir	-11.3971
▁gratuité	-11.3972
▁évidence	-11.3973
évo	-11.3976
▁Etienne	-11.3976
VR	-11.3977
▁Swiss	-11.3979
▁Qatar	-11.3979
▁dérive	-11.3983
bac	-11.3984
▁arrivent	-11.3984
▁localisation	-11.3986
-2011	-11.3986
long	-11.3988
▁dynamisme	-11.3991
▁élaboré	-11.3991
▁personnalité	-11.3994
▁précautions	-11.3994
▁décalage	-11.3997
For	-11.3999
Vous	-11.4003
▁Justice	-11.4004
▁1968	-11.4005
▁1978	-11.4008
▁conçue	-11.4008
▁loueur	-11.401
▁salué	-11.4011
▁ouvré	-11.4012
cinq	-11.4014
▁(17	-11.4015
▁reporté	-11.4017
Vi	-11.4017
▁corporels	-11.4018
-01	-11.4018
8,5	-11.4021
▁confortable	-11.4021
▁Wh	-11.4023
:45	-11.4026
▁CGI	-11.4027
feu	-11.4028
Oréal	-11.4028
▁rapporter	-11.4029
▁régionaux	-11.403
▁Claire	-11.4031
▁décennie	-11.4031
Acc	-11.4032
▁chirurgie	-11.4034
▁satisfaire	-11.4034
▁CEO	-11.4034
opposer	-11.4037
130	-11.4038
opposant	-11.4039
accompagne	-11.4042
▁Acheter	-11.4047
▁charte	-11.4047
▁Game	-11.4049
CEE	-11.4051
▁ISR	-11.4052
▁streaming	-11.4053
▁Laurence	-11.4053
▁désert	-11.4055
▁rouler	-11.4055
▁pépite	-11.4059
▁suédois	-11.4059
▁Franck	-11.4059
▁bâtir	-11.406
▁équipement	-11.4063
0,5%	-11.4064
▁déçu	-11.4065
▁Perte	-11.4065
AZ	-11.4067
▁exact	-11.4067
▁testament	-11.4071
turb	-11.4072
▁Vienne	-11.4073
terie	-11.4076
▁débuté	-11.4076
▁couche	-11.4076
▁domicilié	-11.4077
IERE	-11.4078
logue	-11.408
support	-11.4082
▁équilibré	-11.4083
▁Danone	-11.4083
▁CDI	-11.4083
▁Home	-11.4085
source	-11.4089
▁reflète	-11.409
▁5,5	-11.409
deux	-11.409
▁biotech	-11.4091
▁Serge	-11.4093
▁Liste	-11.4096
▁0.00	-11.4099
envoyer	-11.41
▁VIE	-11.4112
▁revendication	-11.4114
RIE	-11.4114
▁contester	-11.4119
▁Comparez	-11.412
▁SCH	-11.4121
▁Information	-11.4122
sistance	-11.4126
▁Famille	-11.4127
▁virage	-11.4128
▁débours	-11.4131
important	-11.4131
▁Emploi	-11.4131
▁Durant	-11.4132
▁Nathalie	-11.4133
▁détaché	-11.4133
▁contentieux	-11.4134
▁défenseur	-11.4134
▁pilotée	-11.4135
▁modéré	-11.4135
media	-11.4135
▁sommeil	-11.4136
▁Gri	-11.4137
▁généralisée	-11.4138
▁immatriculé	-11.4139
envisage	-11.4144
▁GPS	-11.4145
▁1.1	-11.4146
src	-11.415
▁innovante	-11.4151
wan	-11.4157
▁Christine	-11.4158
▁extraordinaire	-11.4158
▁occasionnel	-11.4158
caisse	-11.4159
▁ciel	-11.4159
▁Tur	-11.416
▁7,5	-11.4161
▁illégale	-11.4161
▁supplément	-11.4162
issé	-11.4162
▁efficacement	-11.4163
▁Darmanin	-11.4164
▁congrès	-11.4164
▁sollicité	-11.4164
WILLER	-11.4164
▁Florence	-11.4164
▁consacrer	-11.4164
▁frères	-11.4167
low	-11.4168
▁Citroën	-11.417
▁pack	-11.417
Mar	-11.4173
▁constants	-11.4175
▁fameux	-11.4176
dier	-11.4177
▁Michelin	-11.4178
▁(4)	-11.4181
▁mus	-11.4182
▁requête	-11.4182
▁attente	-11.4187
▁animal	-11.4188
▁Main	-11.4191
EDI	-11.4193
▁confirmation	-11.4195
▁justificatives	-11.4195
▁retourner	-11.4196
▁adhésion	-11.4196
0,1	-11.4198
▁fumée	-11.4202
▁militant	-11.4202
antenne	-11.4205
▁inverse	-11.421
etti	-11.4213
indicateur	-11.4213
▁BUREAU	-11.4214
▁1972	-11.4218
▁camping	-11.422
▁sélectionner	-11.4222
umér	-11.4224
▁pionnier	-11.4226
Professeur	-11.4226
▁Mur	-11.4228
▁attire	-11.4231
▁Champagne	-11.4233
▁abandonne	-11.4236
ël	-11.4236
▁prépa	-11.4238
▁€/	-11.4238
mesure	-11.4239
▁savez	-11.4239
><	-11.424
▁Option	-11.4241
toy	-11.4242
MAN	-11.4242
▁dangereuse	-11.4243
:35	-11.4244
▁bour	-11.4245
▁Spécial	-11.4245
EZ	-11.4251
▁résultant	-11.4251
▁ultérieur	-11.4251
défini	-11.4251
▁Boeing	-11.4251
▁Play	-11.4254
▁Décryptage	-11.4257
iba	-11.4261
Assad	-11.4262
▁tutelle	-11.4264
▁rendent	-11.4264
Inter	-11.4264
cam	-11.4266
▁médiatique	-11.4267
▁éloigné	-11.427
▁Fri	-11.4275
islam	-11.4275
▁inédit	-11.4276
▁épargné	-11.4276
▁tiennent	-11.4276
▁Thi	-11.4276
▁Guyane	-11.4277
SSE	-11.4277
Germain	-11.4278
▁spécialement	-11.4279
▁contraignant	-11.4282
▁frère	-11.4285
2.000	-11.4286
▁réunir	-11.4287
1972	-11.4288
Ebitda	-11.4289
▁ONG	-11.429
rê	-11.4291
▁high	-11.4293
▁révéler	-11.4295
nette	-11.4296
cq	-11.43
▁PIERRE	-11.4301
▁durer	-11.4302
▁programmation	-11.4304
▁Liberté	-11.4309
bb	-11.431
ark	-11.4311
▁subit	-11.4311
examiner	-11.4314
FORT	-11.4315
▁manœuvre	-11.4321
tisme	-11.4325
▁Télécharger	-11.4327
çait	-11.4327
▁Plafond	-11.4327
taient	-11.4328
fact	-11.4328
▁confirmée	-11.4332
opérer	-11.4332
propriétaire	-11.4333
appartement	-11.4333
▁Bpifrance	-11.4339
logique	-11.435
▁spécificités	-11.435
établi	-11.4352
usufruit	-11.4355
ctive	-11.4357
▁bloquer	-11.4362
▁penche	-11.4362
▁REPUBLIQUE	-11.4364
▁divise	-11.4366
uk	-11.437
▁50.000	-11.4373
1974	-11.4375
▁essentielle	-11.4376
▁bénévole	-11.4377
Education	-11.4377
▁Day	-11.4383
▁flexible	-11.439
▁devaient	-11.4391
▁primo	-11.4392
1952	-11.4394
▁campus	-11.4395
▁1975	-11.4397
▁normalement	-11.4397
élite	-11.4398
▁acquéreurs	-11.4398
▁considération	-11.4399
▁meublée	-11.44
▁+2	-11.4401
▁ETI	-11.4401
▁équipée	-11.4402
alliance	-11.4405
agglomération	-11.4407
▁Anglais	-11.4409
▁confier	-11.4415
Baptiste	-11.4415
▁Brent	-11.4416
imagine	-11.4416
élire	-11.4417
▁croître	-11.4417
moi	-11.442
▁IP	-11.4421
▁4,3	-11.4427
▁déductible	-11.4427
humanité	-11.4428
▁alliés	-11.4431
/01/2018	-11.4434
oeuvre	-11.4435
▁coupon	-11.4438
mut	-11.4441
▁trimestrielle	-11.4442
▁Personnel	-11.4443
▁Hulot	-11.4449
▁Britanniques	-11.4452
▁posté	-11.4453
▁restitution	-11.446
▁arrêter	-11.4461
ider	-11.4461
▁piège	-11.4461
▁conventionnelle	-11.4466
▁Futur	-11.4466
▁Différé	-11.4466
▁Siemens	-11.4473
▁bleue	-11.4474
▁résolu	-11.4475
▁entité	-11.4476
gnac	-11.4478
▁chaussure	-11.4479
▁avancer	-11.4482
▁préfèrent	-11.4488
éva	-11.449
électroménager	-11.4492
SHEIM	-11.4496
▁Roger	-11.4498
Histoire	-11.4499
▁schéma	-11.45
▁suspens	-11.4501
▁financée	-11.4511
▁abaissé	-11.4511
▁tiendra	-11.4511
actualisé	-11.4511
▁sucre	-11.4519
▁Créée	-11.4522
▁indirectement	-11.4523
propriété	-11.4524
arnaque	-11.4537
▁Certificat	-11.4538
▁Agent	-11.454
▁Auvergne	-11.4543
▁cinquante	-11.4543
▁dégagé	-11.4543
▁envisagé	-11.4545
attaquer	-11.4547
▁Energie	-11.4548
▁couvrant	-11.455
▁Hou	-11.4554
▁retournement	-11.4556
▁détermine	-11.4557
lieu	-11.4558
doc	-11.4558
:20	-11.4559
inquiète	-11.456
logement	-11.456
Yves	-11.4562
▁Syn	-11.4563
OUT	-11.4563
iant	-11.4563
▁cotisé	-11.4564
▁Midi	-11.4564
Etienne	-11.4565
illard	-11.4565
▁rendant	-11.4569
▁libéré	-11.4569
Gobain	-11.4569
▁Fnac	-11.4569
▁Réponses	-11.457
▁émises	-11.4573
▁apparu	-11.4574
APL	-11.4576
hydr	-11.4578
/11	-11.4578
▁System	-11.4582
▁coach	-11.4583
▁récit	-11.4585
▁soldats	-11.459
▁minimal	-11.459
▁Med	-11.4591
▁Baisse	-11.4592
▁analyser	-11.4596
celle	-11.46
▁créance	-11.4601
▁météo	-11.4603
code	-11.4603
▁allié	-11.4606
▁Bois	-11.4608
▁consentement	-11.4608
▁fallu	-11.4608
▁généraliste	-11.4609
▁Idem	-11.4611
péri	-11.4612
▁métropolitaine	-11.4615
2012	-11.4617
▁diffère	-11.4618
▁Détachement	-11.4621
▁révisé	-11.4622
▁utilisez	-11.4623
▁députée	-11.4624
▁Média	-11.4627
intérim	-11.4628
▁Clément	-11.4628
▁exécuté	-11.4629
▁gal	-11.463
▁désaccord	-11.4634
atti	-11.4634
Art	-11.4635
▁Professionnels	-11.4636
50%	-11.4636
▁discuter	-11.4642
▁Ltd	-11.4643
média	-11.4643
▁concret	-11.4648
▁Touraine	-11.4649
Premier	-11.465
▁requise	-11.4654
▁écologiste	-11.4654
:01	-11.4655
▁USB	-11.4656
▁$	-11.4657
▁cadeau	-11.4658
omo	-11.4658
spér	-11.4659
importation	-11.4659
▁échapper	-11.4659
▁taxable	-11.4661
▁feux	-11.4664
▁passera	-11.4665
▁contr	-11.4665
▁noté	-11.4666
▁rumeurs	-11.4669
▁Sam	-11.4671
6,6	-11.4671
bul	-11.4674
▁animale	-11.4674
▁notable	-11.4675
▁multiplier	-11.4677
▁tradition	-11.4679
ual	-11.4681
allongement	-11.4682
dique	-11.4685
▁idéale	-11.4688
▁restreint	-11.4693
220	-11.4698
▁vois	-11.4702
▁tendue	-11.4702
▁1992	-11.4703
▁révélations	-11.4705
▁Nanterre	-11.4706
▁hedge	-11.4706
▁projection	-11.4706
abus	-11.4709
ordonnance	-11.4709
▁Smic	-11.4711
▁baissier	-11.4713
▁structuré	-11.4713
▁Madame	-11.4713
▁poisson	-11.4713
▁écrire	-11.4713
▁ateliers	-11.4714
notamment	-11.4716
▁4,1	-11.4717
▁section	-11.4719
▁Romain	-11.4721
BACH	-11.4723
▁Perco	-11.4726
▁BRI	-11.4727
▁Divers	-11.4727
▁intra	-11.4729
▁dégradé	-11.4732
▁monument	-11.4732
▁négligeable	-11.4733
▁Commun	-11.4734
▁Moto	-11.4734
▁Réagir	-11.4735
FO	-11.4738
observatoire	-11.4739
▁domine	-11.4739
tol	-11.474
▁épreuves	-11.4743
pac	-11.4743
▁libération	-11.4745
▁Cyril	-11.4746
TAL	-11.4749
▁spéciaux	-11.4752
▁entamé	-11.4752
▁biologique	-11.4753
▁veiller	-11.4757
▁expérimenté	-11.4759
▁1945	-11.4761
▁Far	-11.4762
ajout	-11.4764
▁sûre	-11.4765
▁individus	-11.4767
▁piéton	-11.4768
▁processeur	-11.477
▁crainte	-11.4771
:11	-11.4772
▁suggère	-11.4772
▁plongé	-11.4772
▁Chacun	-11.4775
MES	-11.4779
▁fruit	-11.4779
▁rapproche	-11.4782
▁détection	-11.4785
ANNE	-11.4785
Lucent	-11.4787
▁CAP	-11.4789
gni	-11.479
▁Confi	-11.4791
▁EM	-11.4791
▁péril	-11.4791
▁cosmétique	-11.4792
▁embarqué	-11.4792
▁Trading	-11.4792
▁Tél	-11.4793
▁aliments	-11.4793
▁considèrent	-11.4793
▁hôpitaux	-11.4798
▁formulé	-11.4798
▁senior	-11.4799
▁contra	-11.4806
▁nulle	-11.4809
▁Camp	-11.481
bag	-11.4813
▁Thales	-11.4813
:10	-11.4816
interroger	-11.4816
▁XX	-11.4818
IDE	-11.4818
▁programmés	-11.482
culaire	-11.4821
▁Rachat	-11.4821
▁simplifié	-11.4825
▁Relations	-11.4825
win	-11.4827
▁(=	-11.4829
▁acheteur	-11.483
▁cessation	-11.4831
effondrement	-11.4831
▁soupçonné	-11.4833
▁Suravenir	-11.4837
▁précédant	-11.4838
▁Chinois	-11.4838
▁exigeant	-11.4838
▁travailleur	-11.4838
▁1974	-11.4842
▁Manifestation	-11.4845
tention	-11.4845
▁prélevé	-11.4847
instance	-11.4849
iqué	-11.485
auront	-11.4851
▁mélange	-11.4851
isolation	-11.4851
URE	-11.4856
▁octroyé	-11.4858
▁contrôleur	-11.4859
chu	-11.4861
▁cotée	-11.4866
▁réclamer	-11.4867
▁préalablement	-11.4868
▁IV	-11.4869
▁représentative	-11.4871
▁Île	-11.4871
▁alimenté	-11.4873
-2012	-11.4873
▁1969	-11.4876
▁18%	-11.4879
▁foulée	-11.4879
▁Galaxy	-11.4885
▁cercle	-11.4885
▁1994	-11.4887
chage	-11.4888
▁continuité	-11.4888
▁ressorti	-11.4889
▁podium	-11.4891
-2017)	-11.4892
▁Etude	-11.4893
▁pouvaient	-11.4898
coll	-11.4898
▁Caf	-11.4902
▁défilé	-11.4903
▁signalé	-11.4903
▁Chronique	-11.4905
bourse	-11.4908
▁Ram	-11.4908
:50	-11.491
▁réorganisation	-11.4913
considérablement	-11.4914
▁balance	-11.4915
▁structurel	-11.4922
▁occidental	-11.4925
▁Accident	-11.4925
▁anglo	-11.493
▁serveurs	-11.493
▁tricolore	-11.4931
▁Mercedes	-11.4931
▁Présidentielle	-11.4931
accepter	-11.4932
:29	-11.4935
▁Directive	-11.4937
▁Interrogé	-11.4938
▁motivé	-11.4938
▁solidité	-11.4939
▁suffi	-11.4941
▁Noir	-11.4942
▁volatil	-11.4943
authentification	-11.4945
▁agrément	-11.4953
▁protégée	-11.4953
:40	-11.4954
▁2042	-11.4954
row	-11.4954
ématérialisation	-11.4958
▁migration	-11.4958
▁collabor	-11.496
près	-11.4962
▁univers	-11.4967
assur	-11.4967
▁Liquide	-11.4972
▁Lorraine	-11.4972
▁sachez	-11.4973
▁conduis	-11.4973
▁touristes	-11.4973
▁comédie	-11.4977
▁pair	-11.4978
▁kit	-11.4978
▁mix	-11.4978
▁PEE	-11.4978
hypothèque	-11.4978
▁insoumise	-11.4978
▁DAJ	-11.4978
▁Merc	-11.4982
historique	-11.4984
▁délivrance	-11.4985
▁institution	-11.4987
▁Préc	-11.4991
bour	-11.4992
▁Space	-11.4992
▁lauréat	-11.4992
1949	-11.4993
Garonne	-11.4995
▁particularité	-11.5005
▁rugby	-11.5005
▁satisfaisant	-11.5005
▁Visuel	-11.5005
uf	-11.5007
valu	-11.5009
▁plateau	-11.5014
▁Yann	-11.5021
▁créant	-11.5024
▁avertissement	-11.5026
▁rédiger	-11.5026
▁égard	-11.503
▁CFE	-11.5032
1970	-11.5032
IVE	-11.5033
▁parental	-11.5033
▁sexe	-11.5034
▁cadeaux	-11.5035
▁Image	-11.5041
▁instrument	-11.5046
aka	-11.5048
IGNY	-11.5048
▁contrôlé	-11.5051
chômage	-11.5052
▁procède	-11.5053
▁beaux	-11.5058
▁1976	-11.5059
▁pacsé	-11.506
ifiée	-11.5064
▁Milan	-11.5065
▁Portfolio	-11.5066
▁Colombie	-11.5067
▁1989	-11.5071
110	-11.5074
▁aisés	-11.5078
▁technicien	-11.508
▁rassurant	-11.508
1944	-11.5081
▁retrouvent	-11.5086
▁frauduleuse	-11.5087
entraîneur	-11.5091
▁1982	-11.5091
▁bain	-11.5097
alisme	-11.5098
▁Maladie	-11.51
▁nue	-11.5103
5,3	-11.5104
exigence	-11.5107
▁comprennent	-11.5107
▁baptisée	-11.5107
▁constant	-11.5108
▁coûteuse	-11.5109
▁immense	-11.511
▁Tro	-11.5111
acompte	-11.5113
▁approprié	-11.5114
ancier	-11.5114
équation	-11.5115
▁Mort	-11.512
▁consacre	-11.5121
▁Rédigé	-11.5121
▁Cher	-11.5124
▁corriger	-11.5128
▁parvient	-11.5129
▁estimée	-11.513
▁brésilien	-11.5134
▁interrogées	-11.5135
▁démontre	-11.5138
Qu	-11.514
▁digitalisation	-11.514
Essonne	-11.5142
▁drone	-11.5143
▁démontrer	-11.5145
▁Store	-11.5146
▁BON	-11.5147
▁bassin	-11.5148
▁bouche	-11.515
▁Chandeliers	-11.5155
▁Vérifiez	-11.5155
▁attribue	-11.5155
▁PONT	-11.5156
▁commercialise	-11.5156
▁payante	-11.5161
0,3	-11.5162
▁excéder	-11.5162
▁juif	-11.5162
▁envoie	-11.5162
▁demandant	-11.5163
▁hiver	-11.5165
▁Bern	-11.517
▁accro	-11.5174
▁cinquantaine	-11.5176
▁discrimination	-11.5176
0,5	-11.5176
▁Parc	-11.5177
▁inscrire	-11.5177
▁enrichi	-11.5179
acqui	-11.5181
140	-11.5182
indexation	-11.5183
▁Comparer	-11.5183
étape	-11.5184
▁Profil	-11.5185
▁Château	-11.5189
▁présumé	-11.5196
▁tournoi	-11.5197
ball	-11.5201
entiel	-11.5202
▁Devant	-11.5205
engagent	-11.5206
▁2.0	-11.5206
:28	-11.5208
▁Habitation	-11.521
▁Fintech	-11.5212
▁MIF	-11.5214
▁excellent	-11.5215
éligibilité	-11.5217
▁Focus	-11.5218
▁repart	-11.5218
▁UMP	-11.5219
étiquette	-11.522
▁renouveler	-11.5224
▁connaitre	-11.5224
▁Za	-11.5226
allie	-11.5226
ding	-11.5227
▁170	-11.5227
▁Fund	-11.5229
▁Bulletin	-11.5231
▁irré	-11.5231
ctrice	-11.5235
▁Atos	-11.5235
▁circuler	-11.5235
optimisme	-11.5238
▁Nav	-11.5243
▁sexuel	-11.5245
▁Start	-11.5246
▁historiquement	-11.5249
indique	-11.525
▁Technology	-11.5252
boul	-11.5255
▁paire	-11.5256
▁dégager	-11.5257
▁stand	-11.5257
▁Cofidis	-11.5258
▁multinationale	-11.5259
Ang	-11.526
▁Angeles	-11.5263
▁exigé	-11.5264
Intelligence	-11.5265
Pacifique	-11.5265
agroalimentaire	-11.5265
Airbus	-11.5266
▁arme	-11.5267
▁finalisé	-11.5269
agissait	-11.5269
▁dotée	-11.5272
▁Securities	-11.5272
▁modifiée	-11.528
▁barrage	-11.528
▁assisté	-11.5282
▁heureux	-11.5282
▁Raphaël	-11.5286
▁absent	-11.5286
actionnariat	-11.5286
▁Forfait	-11.5287
▁CNC	-11.5287
▁opposants	-11.5288
▁viendra	-11.5289
▁opère	-11.529
▁fonctionnalité	-11.5291
▁Nom	-11.5292
▁Adrien	-11.5301
▁Atlantique	-11.5302
▁présidentiel	-11.5302
▁spatiale	-11.5308
▁BEAU	-11.5312
:31	-11.5312
▁Cetelem	-11.5314
▁échantillon	-11.5317
▁regret	-11.5323
▁Mus	-11.5324
6,8	-11.5326
entrepôt	-11.5329
▁immo	-11.5329
▁maternelle	-11.5335
);	-11.534
VER	-11.5341
▁RGPD	-11.5342
▁1967	-11.5342
▁thé	-11.5344
▁ballon	-11.5344
:32	-11.5348
▁Mds	-11.5348
▁visent	-11.5351
▁provoque	-11.5351
asser	-11.5355
▁gérée	-11.5355
▁durci	-11.5357
▁orange	-11.5358
tête	-11.5359
▁supermarché	-11.5363
▁aéronautique	-11.5367
▁puce	-11.5367
▁boulevard	-11.537
▁drogue	-11.5371
▁battre	-11.5372
▁attentif	-11.5377
GUE	-11.5378
330	-11.5382
donne	-11.5384
:02	-11.5385
versement	-11.5389
▁génétique	-11.5391
▁prolonge	-11.5393
▁strictement	-11.5394
malus	-11.5394
▁tourné	-11.5395
Arc	-11.5397
▁distinguer	-11.5398
ambiance	-11.5398
▁Conseiller	-11.5398
▁FinTech	-11.5399
LAN	-11.5401
▁mesuré	-11.5401
▁profondément	-11.5405
▁Livre	-11.5405
▁canton	-11.5406
▁collaborateur	-11.5406
▁dépendent	-11.5408
▁prôn	-11.5412
▁positionner	-11.5416
ENHEIM	-11.5419
▁Holding	-11.5419
▁Research	-11.5419
▁manipulation	-11.5419
▁rigueur	-11.5419
▁appellations	-11.5429
▁importance	-11.543
▁offensive	-11.5433
▁trajectoire	-11.5433
▁Politique	-11.544
▁nations	-11.544
▁Iliad	-11.544
PTZ	-11.5442
▁You	-11.5445
▁attiré	-11.5447
▁consulté	-11.5448
▁Sachez	-11.5449
▁Valeo	-11.5449
▁estimant	-11.5455
▁Gabriel	-11.5455
▁1950	-11.5456
▁Parallèlement	-11.5461
▁Mir	-11.5462
▁cumuler	-11.5462
▁autorité	-11.5467
terre	-11.5467
Comté	-11.5468
▁Agnès	-11.5469
:03	-11.5469
▁carence	-11.547
▁gendarmerie	-11.547
homologation	-11.5476
▁Consulter	-11.5476
▁phrase	-11.5476
▁sérénité	-11.5476
▁Leclerc	-11.5476
▁défiscalisé	-11.5476
▁Pyrénées	-11.5476
aptitude	-11.5476
▁recrute	-11.5476
▁MON	-11.5476
▁1971	-11.5479
▁Peter	-11.5481
▁pensé	-11.5481
écologie	-11.5482
▁reculer	-11.5482
anomalie	-11.5483
▁recensé	-11.5483
▁Patri	-11.5483
▁saoudien	-11.5484
▁colonne	-11.5484
▁12%	-11.5487
6,7	-11.5489
▁possession	-11.549
▁cheval	-11.549
370	-11.5491
▁Moi	-11.5496
▁ramené	-11.5497
▁existantes	-11.5497
▁BEL	-11.5509
▁beauté	-11.5509
alléger	-11.551
▁sœur	-11.5511
▁ouvriers	-11.5512
culture	-11.5513
▁Jack	-11.5515
▁encourager	-11.5518
/2012	-11.552
text	-11.552
heim	-11.5525
▁6,5	-11.5526
/09/2018	-11.5526
eck	-11.5526
▁alimenter	-11.5529
▁Norvège	-11.5532
▁3.000	-11.5533
▁performante	-11.5536
minist	-11.5537
▁Classic	-11.554
▁naturellement	-11.5544
icité	-11.5545
▁soumettre	-11.5548
éloigne	-11.5549
admission	-11.5553
▁prédécesseur	-11.5554
▁violation	-11.5554
▁communique	-11.5554
▁paraître	-11.5556
▁libérale	-11.5558
▁compartiment	-11.5561
▁Suez	-11.5566
interprétation	-11.5568
▁liaison	-11.5568
POINT	-11.5569
pat	-11.557
▁Accord	-11.5573
▁piratage	-11.5575
urier	-11.5575
étiquetage	-11.5576
:16	-11.5577
▁console	-11.5579
▁prévisionnel	-11.5582
▁Nobel	-11.5583
▁coupable	-11.5584
fou	-11.5584
▁Vive	-11.5587
▁Watch	-11.559
▁empêche	-11.5591
Pas	-11.5598
▁ISIN	-11.5598
▁Marcel	-11.5601
:18	-11.5601
▁accusations	-11.5605
Agirc	-11.5607
▁travaillant	-11.5608
▁‘	-11.5611
Eglise	-11.5611
/07/2018	-11.5611
produit	-11.5614
▁imagin	-11.5615
▁Présent	-11.5617
:46	-11.5617
exercer	-11.5619
alors	-11.5622
flex	-11.5624
▁Moscovici	-11.5625
▁aborde	-11.5626
▁Renaud	-11.5634
occupe	-11.5637
▁démarre	-11.5637
▁Détail	-11.564
▁supp	-11.5642
▁4,6	-11.5643
Opéra	-11.565
▁conteste	-11.5654
IES	-11.5658
écriture	-11.5664
attestation	-11.5665
▁prononcée	-11.5666
▁SAS	-11.5668
▁Fabrice	-11.5669
▁découvre	-11.5671
▁1988	-11.5673
▁inquiet	-11.5676
:25	-11.5678
▁modifie	-11.568
▁HLM	-11.5683
arbitre	-11.5683
▁jugent	-11.5684
▁Pal	-11.5684
III	-11.5687
NES	-11.569
▁approfondi	-11.569
▁habituellement	-11.5692
▁invente	-11.5694
▁analysé	-11.5698
▁manquement	-11.5699
ku	-11.5703
Amsterdam	-11.5705
▁démarrage	-11.5705
▁Durable	-11.5705
▁Revolut	-11.5705
MONT	-11.5706
▁handicapées	-11.571
▁Avenue	-11.5712
▁haine	-11.5713
5,8	-11.5713
hop	-11.5719
▁cardiaque	-11.5719
▁pertinent	-11.572
lk	-11.572
▁original	-11.572
PORT	-11.5721
uck	-11.5722
:43	-11.5725
▁turc	-11.5726
▁Publiez	-11.5726
▁jurisprudence	-11.5726
▁MSCI	-11.5727
▁MONDE	-11.5731
▁Bob	-11.5732
▁Key	-11.5732
▁insuffisante	-11.5733
▁scolarité	-11.5734
▁fixation	-11.5734
▁adéquat	-11.5734
▁1955	-11.5734
▁épouse	-11.5735
▁teneur	-11.5735
istant	-11.5736
▁trouvez	-11.5737
▁HTC	-11.5737
▁Indice	-11.5737
évalué	-11.5738
:13	-11.5739
▁Maurice	-11.5741
▁refuge	-11.5748
▁chiffré	-11.5748
assaut	-11.5751
dj	-11.5755
appétit	-11.5756
▁paquet	-11.5756
▁conscient	-11.5756
▁Régime	-11.5756
▁puni	-11.5756
ennemi	-11.5758
▁LOA	-11.5762
▁har	-11.5764
scope	-11.5764
tox	-11.5769
▁repreneur	-11.577
▁tranquille	-11.577
▁abusive	-11.5771
▁pénalité	-11.5775
5,6	-11.5777
▁14%	-11.5777
▁master	-11.5777
▁Mathieu	-11.5777
▁BRED	-11.5778
play	-11.5778
▁audience	-11.578
▁Arm	-11.5781
▁régi	-11.5786
▁spécifiquement	-11.5788
allonge	-11.5789
photo	-11.579
▁Kong	-11.5791
▁gam	-11.5791
▁télévisé	-11.5792
▁citer	-11.5792
▁palais	-11.5793
000€	-11.5795
GER	-11.5796
▁périodique	-11.5799
naissance	-11.5802
▁4,7	-11.5804
Im	-11.5806
▁pénurie	-11.5807
▁essayer	-11.5807
9,5	-11.581
▁expérimentation	-11.5811
▁Darty	-11.5815
:05	-11.5816
▁désignation	-11.5821
▁Sky	-11.5822
gate	-11.5824
▁Europa	-11.5825
élèvent	-11.5828
▁Disney	-11.5829
▁imaginé	-11.5832
▁Altice	-11.5833
enfance	-11.5833
▁Sala	-11.5833
▁Alibaba	-11.5833
▁Emission	-11.5836
▁nutrition	-11.5836
160	-11.5836
▁huitième	-11.5837
▁originale	-11.584
5,4	-11.584
▁possèdent	-11.5842
▁Alcatel	-11.5843
hygiène	-11.5843
▁mondialisation	-11.5844
▁voile	-11.5847
▁spéculation	-11.5848
▁Eckert	-11.5851
▁Trophée	-11.5851
▁imprimé	-11.5853
▁Pharma	-11.5858
▁Guerre	-11.5858
aurez	-11.5858
AULT	-11.5859
▁déséquilibre	-11.5861
book	-11.5862
▁refonte	-11.5865
▁multiplication	-11.5867
anticiper	-11.587
bré	-11.5871
aluminium	-11.5873
▁résidentiel	-11.5874
▁flash	-11.5875
▁1993	-11.5877
Egypte	-11.588
▁meeting	-11.588
▁donateur	-11.5884
▁Gérer	-11.5884
▁israélien	-11.5885
optique	-11.589
TIC	-11.589
GES	-11.5893
1975	-11.5894
▁notoriété	-11.5895
▁répartit	-11.5897
▁Centrale	-11.5899
Anne	-11.59
anie	-11.5905
instrument	-11.5907
▁Musk	-11.5909
DEL	-11.5913
▁proposera	-11.5914
▁Mme	-11.5917
immo	-11.5917
▁parcouru	-11.5918
espéré	-11.5922
▁Création	-11.5924
entraînement	-11.5924
170	-11.5928
ator	-11.5929
pole	-11.5929
▁endommagé	-11.5932
▁vedette	-11.5932
▁!!!	-11.5932
▁Climat	-11.5932
▁Joseph	-11.5939
▁Culture	-11.5939
▁attaqué	-11.5947
ILE	-11.5948
▁Franche	-11.5954
▁observée	-11.5958
optimiser	-11.596
▁affaibli	-11.5961
▁stricte	-11.5962
:55	-11.5962
▁STE	-11.5966
▁méga	-11.5969
indemniser	-11.5969
▁échangé	-11.5969
▁sentir	-11.5971
▁restée	-11.5972
▁capture	-11.5972
Provence	-11.5974
▁Green	-11.5976
▁qualifiée	-11.5983
▁dénoncer	-11.5984
▁stabilise	-11.5986
▁aboutir	-11.5987
▁consommer	-11.5989
▁controversé	-11.5991
▁Maxime	-11.5992
▁Damas	-11.5993
▁Bloc	-11.5994
▁High	-11.5998
▁systémique	-11.5999
▁1977	-11.6007
▁MAAF	-11.6008
▁généralisation	-11.601
opi	-11.601
:23	-11.6018
:17	-11.602
/03/2018	-11.6022
Alep	-11.6023
nouvel	-11.6024
▁Fond	-11.6027
▁Conséquence	-11.6029
▁combinaison	-11.6029
ERT	-11.6029
▁Tunisie	-11.6029
▁foule	-11.6031
▁1979	-11.6034
expliquer	-11.6035
▁Roland	-11.6036
oeil	-11.6036
▁Oney	-11.6041
▁compensé	-11.6044
▁Janvier	-11.6044
▁pâti	-11.6045
▁ressenti	-11.6045
opéra	-11.6045
▁préférentiel	-11.6051
▁interdite	-11.6052
▁détiennent	-11.6059
▁soixante	-11.6059
▁foot	-11.6061
▁Accéder	-11.6066
▁stagiaire	-11.6066
▁régulier	-11.6067
5,5	-11.6067
▁supervision	-11.6067
▁Active	-11.607
▁minorité	-11.6074
métrie	-11.6074
▁appellent	-11.6074
▁bateaux	-11.6078
▁1986	-11.6079
unanimité	-11.6081
▁textile	-11.6081
▁Solidaire	-11.6081
SIPA	-11.6081
▁Frank	-11.6081
▁interrogations	-11.6082
four	-11.6084
▁PAR	-11.609
▁sixième	-11.6091
:33	-11.6094
▁fournies	-11.6094
https	-11.6095
gilets	-11.6095
observation	-11.6097
type	-11.6098
▁pli	-11.6099
▁11%	-11.6099
jusqu	-11.6103
▁Dijon	-11.6104
introduire	-11.6104
▁respectant	-11.6106
▁Somme	-11.6108
américaine	-11.6109
▁Région	-11.611
▁Variation	-11.6111
accessibilité	-11.6111
▁chanson	-11.6111
250	-11.6114
▁vif	-11.6116
▁tribunaux	-11.6119
capital	-11.6119
:04	-11.6122
omni	-11.6124
▁certifié	-11.6126
attaquant	-11.6127
organise	-11.6127
roux	-11.6128
▁profitez	-11.6128
▁Berger	-11.6129
MER	-11.613
▁délicate	-11.613
▁déclarant	-11.6134
▁vieillissement	-11.6134
▁grec	-11.6138
formation	-11.614
▁tissu	-11.614
▁surprenant	-11.6142
▁Ricard	-11.6142
cession	-11.6143
▁Binck	-11.6149
▁pirate	-11.615
▁indien	-11.6153
Univers	-11.6154
▁entame	-11.6155
▁recyclage	-11.6157
grad	-11.6162
▁Stade	-11.6163
▁Manchester	-11.6164
engouement	-11.6166
▁Caroline	-11.6172
▁dévoiler	-11.6176
▁multiplie	-11.6176
Cha	-11.6181
Administration	-11.6187
▁Choisissez	-11.6187
▁représentatif	-11.6187
▁spécul	-11.6189
▁présidé	-11.6192
▁revendre	-11.6198
IST	-11.6199
▁prolonger	-11.62
▁profond	-11.6203
ACT	-11.6205
▁motard	-11.6206
▁économiser	-11.621
▁monté	-11.621
▁China	-11.6213
▁panique	-11.6216
▁impacté	-11.6217
▁onéreux	-11.6217
▁sectoriel	-11.6217
▁Martinique	-11.6224
▁relèvent	-11.6228
▁fiabilité	-11.6228
laud	-11.6228
▁Forex	-11.6231
CON	-11.6232
Pyrénées	-11.6233
▁chapitre	-11.6233
prix	-11.6236
USS	-11.6237
▁induit	-11.6241
▁minuit	-11.6242
▁puissante	-11.6244
algorithme	-11.6247
pert	-11.6248
Livret	-11.6248
▁explicite	-11.6248
▁espagnole	-11.625
▁SUV	-11.6251
▁90%	-11.6251
rill	-11.6251
▁comporter	-11.6254
▁1965	-11.6255
▁peinture	-11.6256
▁déroulé	-11.6256
hib	-11.6259
▁détour	-11.626
▁éditorial	-11.6263
▁parrainage	-11.6263
▁prince	-11.6263
Action	-11.6267
▁express	-11.6269
:19	-11.6271
incubateur	-11.6271
▁artisan	-11.6272
▁Retail	-11.6274
3,5	-11.6275
▁mobilise	-11.6278
▁étonnant	-11.6279
œuf	-11.6279
▁avéré	-11.628
:12	-11.628
▁mental	-11.6284
▁Danemark	-11.6286
offensive	-11.6287
:07	-11.6291
▁incapacité	-11.6292
▁Ouverture	-11.6294
▁Voyage	-11.6294
▁apparaissent	-11.6294
▁perçoit	-11.6294
/09/2017	-11.6294
▁Cardif	-11.6297
▁0,75%	-11.6298
▁achetez	-11.6302
:53	-11.6302
‘	-11.6302
Landes	-11.6307
market	-11.6309
ortho	-11.631
▁Allocation	-11.6311
▁1991	-11.6313
▁solliciter	-11.6317
350	-11.6318
???	-11.6319
▁Application	-11.6325
▁Formulaire	-11.6325
viendront	-11.6325
▁philosophe	-11.6333
▁populiste	-11.6333
▁répété	-11.6333
▁démarrer	-11.6335
3-1	-11.6339
▁modérée	-11.6339
arrestation	-11.634
Uber	-11.6343
«	-11.6345
▁incite	-11.6353
▁Juan	-11.6355
▁ajoutant	-11.6356
▁séisme	-11.6356
▁accroître	-11.6361
▁Francis	-11.6362
élevage	-11.6364
Tra	-11.6367
UF	-11.637
▁catholique	-11.6371
▁géopolitique	-11.6371
▁hectares	-11.6372
▁remboursée	-11.6372
évasion	-11.6372
▁Réduction	-11.6373
▁rassemblé	-11.6374
Auto	-11.6376
:37	-11.6379
▁Rose	-11.6383
7,6	-11.6384
▁cliquant	-11.6387
▁redoute	-11.6387
▁habilité	-11.6387
▁Motors	-11.6387
▁loue	-11.6392
▁excellente	-11.6392
▁mentionner	-11.6394
chaîne	-11.6395
▁GENERALI	-11.6402
▁déclenché	-11.6402
iPad	-11.6403
:14	-11.6408
▁renégociation	-11.641
ministre	-11.6417
▁Premium	-11.6418
▁bonheur	-11.6418
européen	-11.6419
▁Deuxième	-11.6419
▁longueur	-11.6422
▁SMIC	-11.6426
:36	-11.6426
▁boîtier	-11.6433
▁Aquitaine	-11.6434
achèvement	-11.6434
▁compréhension	-11.6441
▁Smartphone	-11.6441
▁Environnement	-11.6442
▁Office	-11.6442
▁Caen	-11.6444
▁affectée	-11.6444
Act	-11.6444
▁diffuser	-11.6448
▁compliquée	-11.6448
EBITDA	-11.6449
▁astuces	-11.6449
▁détecteur	-11.6449
▁premium	-11.6449
▁criminel	-11.645
habitants	-11.645
▁négocie	-11.6453
6,4	-11.6454
▁souveraine	-11.6454
:27	-11.6457
▁Travaux	-11.6465
▁flexibilité	-11.6465
▁Dam	-11.6468
rempli	-11.6469
▁1987	-11.6471
/12/2017	-11.6471
▁fréquemment	-11.6472
▁timbre	-11.6472
▁cesser	-11.6479
▁explose	-11.6481
▁Exchange	-11.6481
▁syndical	-11.6485
▁purement	-11.6487
▁Confédération	-11.6488
Yvelines	-11.6488
▁XIX	-11.649
▁Cyber	-11.6491
ouragan	-11.6491
REA	-11.6493
▁surpris	-11.6494
UDI	-11.6495
▁répandu	-11.6496
▁Soyez	-11.6496
▁positionne	-11.6497
lui	-11.6497
▁comptait	-11.6498
intéressent	-11.6502
▁Cédric	-11.6504
▁Juridique	-11.6504
▁douleur	-11.6505
▁innove	-11.6505
▁rentre	-11.6507
gul	-11.6508
/05/2018	-11.6511
▁Remboursement	-11.6511
▁TNS	-11.6512
:22	-11.6513
Photo	-11.6513
▁garant	-11.6514
Pour	-11.6514
▁détachement	-11.6519
▁PAS	-11.6521
Transactions	-11.6523
▁participent	-11.6523
▁dérogation	-11.6527
▁play	-11.6527
:41	-11.6529
▁45%	-11.653
alter	-11.6534
▁Central	-11.6538
▁privilégiée	-11.6539
▁Opinion	-11.6543
▁insisté	-11.6543
▁revalorisé	-11.6543
▁CNIL	-11.6544
▁panel	-11.6544
affirme	-11.6545
IRE	-11.6546
stein	-11.6548
150	-11.6548
room	-11.6551
ffer	-11.6554
▁visée	-11.6555
▁maxi	-11.6559
DGFiP	-11.6559
▁réplique	-11.6559
▁Pratique	-11.6559
▁docteur	-11.6559
9,9	-11.6561
Par	-11.6564
▁OPC	-11.6565
post	-11.6565
▁diffuse	-11.6568
▁craignent	-11.6575
0,6	-11.6575
▁juriste	-11.6575
▁Small	-11.6575
déclaration	-11.6577
▁délivrer	-11.6578
ADN	-11.658
but	-11.6583
▁expansion	-11.6584
inquiètent	-11.6589
▁dépréciation	-11.659
▁chaudière	-11.6591
actrice	-11.6591
▁CHAR	-11.6593
▁sillage	-11.6596
Microelectronics	-11.6598
▁AMUNDI	-11.6598
:26	-11.6599
▁habituelle	-11.6599
▁manquent	-11.6601
▁1983	-11.6603
▁confondus	-11.6606
chère	-11.6606
ORIAS	-11.6606
otage	-11.6616
ALE	-11.6626
▁Stanley	-11.663
▁Rappelons	-11.663
▁combine	-11.6631
▁nouveauté	-11.6631
▁incitation	-11.6636
▁Gaulle	-11.6638
▁traitant	-11.6638
Dame	-11.6646
▁Aff	-11.6648
▁excessive	-11.6654
▁imaginer	-11.6656
▁grade	-11.666
▁LeLynx	-11.6662
▁Prenez	-11.6663
▁diriger	-11.6664
▁Fabien	-11.6664
▁exclusions	-11.6665
▁réclament	-11.6666
▁Perso	-11.6667
▁encourage	-11.6676
▁Clar	-11.6676
▁Rothschild	-11.6678
▁commandé	-11.6678
▁LREM	-11.6678
▁délivrée	-11.668
expérimentation	-11.6681
Bourse	-11.6681
▁20.000	-11.6681
▁fédéral	-11.6682
▁craindre	-11.6686
▁recruté	-11.6686
▁PRE	-11.6686
▁drapeau	-11.6686
▁matinée	-11.6687
oui	-11.6692
▁inauguré	-11.6694
▁Voiture	-11.6694
▁considér	-11.6697
▁thématique	-11.6701
ificat	-11.6703
:57	-11.6708
▁Jinping	-11.671
▁Karl	-11.6714
:34	-11.6715
▁exercée	-11.6717
/06/2018	-11.6718
▁sérieuse	-11.6718
▁aéroports	-11.6722
▁chanteur	-11.6725
▁coordination	-11.6726
ariat	-11.6727
exportation	-11.6732
▁assister	-11.6732
▁Kha	-11.6733
▁Bell	-11.6733
issage	-11.6733
***	-11.6737
▁sensibilité	-11.6744
utu	-11.6745
▁Clermont	-11.675
▁sauvetage	-11.675
▁décollecte	-11.675
INSEE	-11.675
App	-11.6756
▁distribue	-11.6758
▁sursis	-11.6761
▁législateur	-11.6766
▁sensibilisation	-11.6766
▁suprême	-11.6766
annuler	-11.6766
▁PERCO	-11.6767
▁Dyna	-11.6775
▁Rouen	-11.6782
▁contenir	-11.6782
▁dominé	-11.6782
roll	-11.6782
▁dégrade	-11.6783
▁innovant	-11.6787
▁décompte	-11.6788
▁Mid	-11.6789
/04/2018	-11.679
▁SAP	-11.6793
▁investissent	-11.6794
▁journaux	-11.6799
CIC	-11.68
▁Julie	-11.6803
0,4	-11.6803
▁accru	-11.6804
▁médian	-11.6804
AGNE	-11.6807
:42	-11.6808
▁22/02	-11.6813
▁courriel	-11.6814
▁paradis	-11.6815
▁Cru	-11.6818
:09	-11.6822
▁Sylvain	-11.6823
▁Nancy	-11.6823
▁challenge	-11.6823
▁SRD	-11.6823
▁ABC	-11.6827
éolien	-11.6827
▁4,9	-11.6827
antisémitisme	-11.6831
▁comportant	-11.6831
▁démographique	-11.6831
▁kilo	-11.6831
abondement	-11.6834
▁terrestre	-11.684
▁proportionnelle	-11.6842
▁dénoncent	-11.6846
▁posséder	-11.6847
:38	-11.6848
▁Dell	-11.6853
▁progressent	-11.6856
lière	-11.6858
6,3	-11.6859
▁Portrait	-11.6861
▁dépl	-11.6861
▁déploie	-11.6861
▁paient	-11.6861
▁prélevée	-11.6863
work	-11.6863
▁agression	-11.6867
▁COMM	-11.6873
:52	-11.6877
▁rapidité	-11.6879
FCP	-11.6881
▁inquiétant	-11.6888
stabil	-11.689
▁prolongation	-11.6896
▁Donnez	-11.6896
▁CSA	-11.6899
Hôtel	-11.69
▁Cook	-11.6911
:51	-11.6914
▁prévoyant	-11.6914
▁sombre	-11.6914
paiement	-11.6917
▁programmée	-11.6918
▁fonctionnent	-11.6919
▁Power	-11.692
▁obtenant	-11.6921
▁récupération	-11.6922
▁manqué	-11.6922
▁commercialiser	-11.6923
▁!!	-11.6924
▁Ancien	-11.6925
▁Shutterstock	-11.6928
Occident	-11.6928
NAY	-11.6929
1967	-11.6941
▁explore	-11.6946
▁Notice	-11.6953
▁CNRS	-11.6953
aîné	-11.696
▁Music	-11.6962
investigation	-11.6965
▁fabriquer	-11.6966
▁robotique	-11.6968
/01/2017	-11.6969
▁Adresse	-11.697
▁Caracas	-11.6978
▁grossesse	-11.6978
lire	-11.6979
▁dégage	-11.6983
▁Languedoc	-11.6986
Indonésie	-11.6986
▁Victor	-11.6988
▁craint	-11.6992
▁dépassant	-11.6994
▁législatif	-11.6994
▁privatisation	-11.6994
▁vulnérable	-11.6994
▁GMF	-11.6994
1,6	-11.6998
excédent	-11.6999
éthique	-11.6999
:54	-11.7
▁connecte	-11.7002
▁retail	-11.7003
Espace	-11.7003
oto	-11.7004
▁pertinente	-11.7019
▁régularisation	-11.7019
▁dépenser	-11.7019
▁nourriture	-11.702
▁courir	-11.7021
▁adopte	-11.7023
5,9	-11.7024
7,8	-11.7024
assistant	-11.7024
▁Wauquiez	-11.7027
▁primordial	-11.7027
▁rapatriement	-11.7027
ligne	-11.7036
appliquera	-11.7038
▁incroyable	-11.704
▁2024	-11.7041
▁Clinton	-11.7044
▁regain	-11.7044
▁courage	-11.7047
▁Année	-11.7048
dommage	-11.705
▁résiste	-11.7051
:06	-11.7052
▁distribuer	-11.7053
▁accumulé	-11.706
▁Equi	-11.7063
habilitation	-11.7069
▁spectateur	-11.7069
▁affronter	-11.7069
abonnés	-11.7074
▁Capgemini	-11.7077
▁Parcoursup	-11.7077
▁troupes	-11.7077
:48	-11.7078
arbre	-11.7082
1976	-11.7083
▁combiné	-11.7085
0,7	-11.7089
honoraires	-11.7091
▁rallié	-11.7093
▁pathologie	-11.7102
▁impressionnant	-11.7102
▁learning	-11.7102
:39	-11.7104
INES	-11.7104
érable	-11.7106
onformément	-11.7109
▁RECRUTEMENT	-11.711
▁Ferr	-11.7114
▁électoral	-11.7116
▁Conférence	-11.7118
▁lobby	-11.7119
▁HAUT	-11.7119
7,4	-11.7122
▁enregistrer	-11.7124
HAL	-11.7127
:08	-11.7133
▁rétablir	-11.7137
égeant	-11.714
▁piloter	-11.7143
▁Lyonnais	-11.7145
directeur	-11.7149
▁gagnent	-11.7151
▁vivement	-11.7154
▁Vau	-11.7157
▁cite	-11.7158
▁visuel	-11.7159
▁poursuivent	-11.716
▁consolide	-11.716
▁turque	-11.716
▁coupure	-11.7165
alternance	-11.7169
▁bouger	-11.7169
▁saisine	-11.717
▁convenu	-11.7173
estimation	-11.7175
▁montrant	-11.7177
expansion	-11.7184
▁Difficile	-11.7185
▁touchent	-11.7188
▁collectées	-11.7189
▁Musée	-11.7191
1,2	-11.7192
▁familiaux	-11.7194
▁Automobile	-11.7194
▁LYON	-11.7194
arrondi	-11.7194
▁maillot	-11.7195
expose	-11.7196
▁sûreté	-11.7197
:59	-11.7197
maladie	-11.7201
totalité	-11.7201
▁Informatique	-11.7202
▁hypothécaire	-11.7202
▁Cerfa	-11.7202
épaule	-11.7203
▁doublement	-11.7203
▁départemental	-11.7203
▁marquant	-11.7204
▁album	-11.7206
▁Alexis	-11.7211
▁Guadeloupe	-11.7211
Académie	-11.7219
▁chevaux	-11.7219
interruption	-11.7219
▁basket	-11.7219
▁Report	-11.7227
▁masculin	-11.7228
▁dominante	-11.7229
élargir	-11.7229
▁Directrice	-11.723
▁lecteur	-11.723
:58	-11.7234
▁Maz	-11.7236
▁remboursable	-11.7236
▁manger	-11.7237
▁consortium	-11.7244
▁émetteurs	-11.7248
CHAMP	-11.7249
empire	-11.7252
▁engendre	-11.7253
rico	-11.7254
▁Corner	-11.7255
▁enquêteurs	-11.7256
▁défiance	-11.7259
ysfonctionnement	-11.7261
▁Dimanche	-11.7261
▁pertinence	-11.7261
indiquer	-11.7268
BERG	-11.727
▁cohérence	-11.727
▁FAQ	-11.727
▁dispensé	-11.727
▁color	-11.727
▁PFU	-11.7271
7,5	-11.7272
▁étudie	-11.7276
meuble	-11.7277
▁prof	-11.7277
▁alloué	-11.7278
▁encourageant	-11.7279
▁exigée	-11.728
:47	-11.728
▁RTL	-11.7287
ambul	-11.7287
▁faisons	-11.7288
▁HER	-11.7291
▁sacré	-11.7292
TECH	-11.7295
▁parfum	-11.7298
▁Débit	-11.7299
▁excès	-11.7304
▁réduisant	-11.7304
:44	-11.7306
▁kilomètre	-11.7308
indivision	-11.7308
résidents	-11.7309
▁regrouper	-11.7311
▁Optim	-11.7313
orge	-11.7314
▁Stock	-11.7314
▁Yannick	-11.7321
!!!!	-11.7322
hausse	-11.7324
7.000	-11.7326
▁Profitez	-11.7329
▁renégocier	-11.7329
▁socle	-11.733
▁prouve	-11.733
finale	-11.7336
▁Lancée	-11.7338
▁Draghi	-11.7338
shutdown	-11.7346
▁casser	-11.7348
loyer	-11.7354
▁brochure	-11.7355
▁gravité	-11.7355
▁professionnalis	-11.7355
▁Sinon	-11.7356
assure	-11.7363
▁cohérent	-11.7363
▁douanière	-11.7363
▁Retrait	-11.7364
sept	-11.7365
▁Havre	-11.7365
▁SEC	-11.7368
▁probabilité	-11.7372
▁resserre	-11.7372
instaurer	-11.7377
▁Chef	-11.7378
▁Derrière	-11.7381
▁certitude	-11.7381
▁rose	-11.7381
▁repérer	-11.7381
▁créneau	-11.7383
hyper	-11.7384
édit	-11.7386
▁canaux	-11.7388
▁open	-11.7388
▁⇒	-11.739
▁PLA	-11.7397
contrat	-11.7397
:24	-11.7398
inspection	-11.7398
gram	-11.7403
▁talent	-11.7404
▁opportun	-11.7404
▁impératif	-11.7406
achève	-11.7407
▁cautionnement	-11.7408
▁Programme	-11.7408
▁créent	-11.7411
▁ascendant	-11.7415
▁Bref	-11.7415
écrire	-11.7418
métrage	-11.7419
entraîne	-11.7421
1960	-11.7422
▁Assurer	-11.7423
effectif	-11.7423
▁reconduit	-11.7423
exploration	-11.7424
▁distinction	-11.7425
▁préliminaire	-11.7432
▁slogan	-11.7432
▁rassure	-11.7433
▁500.000	-11.7438
▁Métropole	-11.7441
▁synonyme	-11.7441
▁évoquant	-11.7449
▁Priv	-11.7452
▁leçons	-11.7453
▁attrayant	-11.7458
7,7	-11.7459
âme	-11.7462
▁Appel	-11.7463
▁Chau	-11.7474
▁Environ	-11.7475
▁America	-11.7475
▁conquérir	-11.7475
▁convergence	-11.7475
▁Lionel	-11.7475
▁écarté	-11.7481
▁Matthieu	-11.7484
▁règne	-11.7484
▁Voi	-11.7492
2,8	-11.7492
Saône	-11.7493
▁Transition	-11.7493
▁argentin	-11.7497
▁mortalité	-11.7498
0,1%	-11.7499
▁quarantaine	-11.7501
▁moyennant	-11.7506
:49	-11.7507
:56	-11.7509
▁sociologue	-11.751
▁retire	-11.751
économique	-11.751
espère	-11.7511
importantes	-11.7512
▁UCITS	-11.7519
▁Alur	-11.7524
▁participant	-11.7527
	-11.7527
▁Journée	-11.7527
▁agglomérations	-11.7529
fusion	-11.7531
▁Company	-11.7536
▁incarne	-11.7537
▁francilien	-11.7538
▁manifester	-11.754
Â	-11.7545
▁garçon	-11.7545
▁motorisation	-11.7553
▁1.500	-11.7555
▁ponctuelle	-11.7556
8,8	-11.756
▁Castaner	-11.7562
hôtellerie	-11.7562
▁CDC	-11.7566
auraient	-11.7566
▁CERCLE	-11.7571
▁LECLERC	-11.7571
▁passionné	-11.7575
escroquerie	-11.758
▁Pétrole	-11.758
▁émerger	-11.758
▁Contre	-11.7582
▁exiger	-11.7588
▁circule	-11.7591
santé	-11.7592
▁continué	-11.7595
enthousiasme	-11.7597
▁invitons	-11.7597
▁poignée	-11.7597
▁récapitulatif	-11.7597
▁turbo	-11.7597
▁Jong	-11.76
▁colocation	-11.76
▁péage	-11.7601
académie	-11.7606
▁Syndicat	-11.7606
▁habitué	-11.7606
▁fiscalisé	-11.7607
▁rétablissement	-11.7608
▁concessionnaire	-11.7611
▁1.3	-11.7611
▁corrigé	-11.7615
national	-11.7617
hydrogène	-11.7623
épidémie	-11.7623
▁stabilisation	-11.7623
▁démontré	-11.7623
UFF	-11.763
▁Matteo	-11.7632
▁horaire	-11.7634
▁annonçant	-11.7641
▁filtre	-11.7641
▁libérer	-11.7641
▁Fay	-11.7642
▁souveraineté	-11.7643
▁récupéré	-11.7647
impasse	-11.7649
360	-11.7652
▁Quoi	-11.7655
▁SUD	-11.7659
IERES	-11.7661
▁techno	-11.7663
▁Formation	-11.7665
▁Prise	-11.7665
▁remarquable	-11.7667
▁tunnel	-11.7667
▁chapeau	-11.767
1965	-11.7671
6,9	-11.7681
·	-11.7685
▁déplacé	-11.7685
▁toile	-11.7688
▁Solidarité	-11.7694
▁traduire	-11.7694
▁grimpé	-11.7703
▁remercie	-11.7703
▁réparer	-11.7703
▁Ouvrir	-11.7711
▁manoeuvre	-11.7712
▁Marisol	-11.7713
exclusivité	-11.7713
:21	-11.7716
accessoire	-11.7719
▁remporter	-11.772
▁sponsor	-11.772
▁Vingt	-11.772
nders	-11.7721
▁multitude	-11.7729
[	-11.7731
▁déception	-11.7734
▁Arrêt	-11.7735
▁capitaine	-11.7738
▁dépannage	-11.7738
▁hostile	-11.7738
▁renchéri	-11.7738
▁American	-11.7738
VES	-11.7745
▁raté	-11.7746
▁Essentiel	-11.7747
▁Législatives	-11.7747
▁lucratif	-11.7747
▁Venture	-11.7747
▁chancelière	-11.7747
▁pret	-11.7749
africain	-11.7749
▁milieux	-11.775
▁habitant	-11.775
excuse	-11.7755
imposent	-11.7757
titulaire	-11.7759
▁lourdement	-11.7763
▁résidant	-11.7765
▁lesechos	-11.7765
▁loup	-11.7767
▁abordé	-11.7767
ETI	-11.7772
8,4	-11.7774
▁vérifiez	-11.7779
▁2,5%	-11.7779
▁Quelque	-11.7782
▁think	-11.7783
▁évalue	-11.7784
▁payez	-11.7791
▁façade	-11.7791
▁gigantesque	-11.7791
▁libéraux	-11.7791
▁thérapeutique	-11.7791
Traduction	-11.7799
▁reconnais	-11.78
▁Johnson	-11.7803
▁Chili	-11.7807
▁prometteur	-11.781
▁résister	-11.7812
▁5,2	-11.7814
▁Cuba	-11.7822
▁indexé	-11.7827
Gironde	-11.7827
Euronext	-11.783
▁Matt	-11.7832
/05/2017	-11.7836
▁thèse	-11.7836
▁Téléphone	-11.7837
▁terminer	-11.7838
ajuster	-11.7839
2007	-11.7844
▁renoue	-11.7844
▁Principal	-11.7845
officier	-11.7846
▁cassé	-11.7848
emporter	-11.7851
▁forma	-11.7851
▁Vacances	-11.7854
▁consistant	-11.7855
▁bombard	-11.7863
▁Instagram	-11.7863
▁formidable	-11.7863
▁José	-11.7865
▁mexicain	-11.7872
▁israélienne	-11.7875
▁CET	-11.7879
▁contacté	-11.7879
▁cliquer	-11.7881
▁reportage	-11.7885
▁finalité	-11.7885
▁Sand	-11.7887
▁Continent	-11.789
▁Vieux	-11.7893
▁Réponse	-11.7898
▁Bluetooth	-11.7899
▁agréable	-11.7899
▁abordable	-11.7901
APIE	-11.7903
Lefebvre	-11.7908
▁Prévention	-11.7908
▁caractérise	-11.7908
▁discrète	-11.7908
▁férié	-11.7908
▁Accor	-11.7913
personne	-11.7913
2004	-11.7914
accroître	-11.7915
▁Football	-11.7917
▁quotité	-11.7917
▁viager	-11.7919
▁drame	-11.792
▁transporteur	-11.7922
ugu	-11.7924
▁différencie	-11.7926
/02/2018	-11.7926
▁Accès	-11.7928
▁Corporation	-11.7935
▁bouscule	-11.7935
▁cursus	-11.7935
▁alerté	-11.7936
/03/2017	-11.7936
/11/2017	-11.7936
envolée	-11.7937
▁aménagements	-11.794
▁château	-11.7944
8,6	-11.7945
doub	-11.7947
▁Congo	-11.7949
75%	-11.7949
IZ	-11.7951
▁Foncière	-11.7953
▁Véhicule	-11.7953
▁bracelet	-11.7953
RAND	-11.7959
▁brique	-11.796
▁débité	-11.7961
▁concrétiser	-11.7961
▁Sénégal	-11.7962
▁clôturé	-11.7962
/10/2017	-11.7963
	-11.7972
église	-11.7972
industriel	-11.7972
▁Center	-11.7975
watt	-11.7975
1,4	-11.7978
illustration	-11.7981
▁diplomatie	-11.7981
▁Véronique	-11.7981
▁Expert	-11.7982
commun	-11.7983
bois	-11.7988
activation	-11.799
9,6	-11.7996
	-11.7999
▁quelconque	-11.7999
▁PAYS	-11.7999
▁démarque	-11.7999
▁consigne	-11.8001
dix	-11.8003
▁atteignent	-11.8008
▁malheureusement	-11.8008
▁sonore	-11.8009
▁importé	-11.8017
▁interbancaire	-11.8017
▁grecque	-11.8024
▁model	-11.8026
▁HOLDING	-11.8026
▁soulève	-11.8026
▁inondations	-11.8027
▁îles	-11.8031
▁colis	-11.8036
7,9	-11.804
▁Editorial	-11.8045
▁privilège	-11.8045
▁téléchargement	-11.8045
▁Technique	-11.8045
▁rappelant	-11.805
▁Construction	-11.8054
▁Département	-11.8054
▁UNI	-11.8055
aéronautique	-11.8058
▁cyberattaque	-11.8064
▁Comprendre	-11.8064
▁ECHOS	-11.8072
▁repoussé	-11.8072
▁Montebourg	-11.8072
▁Kat	-11.8076
▁Form	-11.8078
▁cartographie	-11.8081
▁renoncé	-11.8081
▁équitable	-11.8081
▁redonner	-11.8081
1955	-11.8083
Jacques	-11.8086
▁comptabilisé	-11.8086
▁dépose	-11.809
▁assumer	-11.809
▁sterling	-11.809
▁exploiter	-11.8091
/06/2017	-11.8091
7,3	-11.8092
▁Fleur	-11.8094
▁Résolution	-11.81
▁réinvesti	-11.8102
▁fréquentation	-11.8102
▁prospect	-11.8104
▁impérativement	-11.8109
▁débarque	-11.8109
▁gardé	-11.8111
1,7	-11.8114
▁masque	-11.8116
emporte	-11.8117
▁persiste	-11.8118
New	-11.8119
cast	-11.8123
▁Maël	-11.8129
▁Trop	-11.8129
▁Corp	-11.8131
▁Fiat	-11.8139
neuf	-11.814
8,7	-11.8144
▁Spotify	-11.8146
PEL	-11.815
▁2018-2019	-11.8151
zone	-11.8153
▁concevoir	-11.8155
▁vacant	-11.8157
▁dégât	-11.816
▁notifié	-11.8165
▁migratoire	-11.8173
▁fragilité	-11.8174
▁consommé	-11.8174
▁décrypte	-11.8175
▁Publicis	-11.8177
André	-11.8179
▁Daimler	-11.8183
▁Florian	-11.8183
▁Maintenant	-11.8192
▁Créé	-11.8199
▁cannabis	-11.8201
▁suspendre	-11.8204
▁Rich	-11.8204
▁Communauté	-11.8211
▁cultiv	-11.8211
janvier	-11.8216
▁interdire	-11.8219
envergure	-11.822
immobilisation	-11.822
▁sourire	-11.822
▁trembl	-11.8221
Eure	-11.8223
École	-11.8225
▁Hugo	-11.8227
▁compétitive	-11.8229
expulsion	-11.8229
frais	-11.8233
impossibilité	-11.8239
▁Associé	-11.8239
▁TGV	-11.8239
▁Mali	-11.8242
issait	-11.8248
▁divergence	-11.8248
▁cycliste	-11.8248
▁renvoyé	-11.8249
▁Boris	-11.825
▁niche	-11.8252
flow	-11.8255
▁Souscrire	-11.8257
▁périphérique	-11.8257
▁Montréal	-11.8257
▁aléas	-11.8257
▁mettra	-11.8257
▁dépensé	-11.8257
▁collaboratif	-11.8258
▁héros	-11.8258
▁Petro	-11.8261
1,3	-11.8265
▁popularité	-11.8267
▁subordonné	-11.8267
▁reconstruction	-11.827
▁Série	-11.8273
▁Medi	-11.8274
▁Standard	-11.8276
▁exerçant	-11.8276
-2009)	-11.8278
▁revêt	-11.8289
▁Lucas	-11.829
PEA	-11.8292
▁mécontent	-11.8295
▁composite	-11.8295
▁propice	-11.8295
▁censure	-11.8295
▁cumulable	-11.8303
▁Boulogne	-11.8304
▁libellé	-11.8304
▁tranché	-11.8304
▁Champion	-11.8307
▁Comparatif	-11.8314
▁rattraper	-11.8314
▁René	-11.8317
▁Liber	-11.8317
▁tapis	-11.8318
▁programm	-11.8323
▁toulousain	-11.8323
▁School	-11.8323
▁démarré	-11.8323
6,1	-11.8326
▁démenti	-11.8331
▁LOIRE	-11.8331
harmonisation	-11.8332
▁sphère	-11.8332
▁Avez	-11.8338
▁exploité	-11.8339
▁télégrammes	-11.8342
▁BHF	-11.8342
otti	-11.8347
▁monopole	-11.8351
affrontement	-11.8352
professionnelle	-11.8353
mbour	-11.8353
▁Commercial	-11.8354
Crédit	-11.8358
▁connaissez	-11.8361
▁pompiers	-11.8361
invite	-11.8362
▁Reims	-11.8362
▁complique	-11.8363
▁Chal	-11.8366
▁manifesté	-11.837
▁touchant	-11.837
▁tank	-11.837
▁admet	-11.8372
▁signalement	-11.8375
#	-11.8377
▁Evénements	-11.838
▁surtaxé	-11.838
▁souvient	-11.838
▁échoué	-11.838
▁CRDS	-11.838
IGNE	-11.8382
▁illicite	-11.8389
▁RATP	-11.8389
affiliation	-11.8389
travail	-11.8395
▁tirage	-11.8398
Entrepreneur	-11.8399
▁vitrine	-11.8399
humain	-11.8399
▁sérieusement	-11.84
▁plantes	-11.8404
▁Blanquer	-11.8408
▁Paylib	-11.841
▁investissant	-11.8412
IRL	-11.8416
▁2023	-11.8417
▁Schneider	-11.8418
▁ramener	-11.8418
▁Franco	-11.8422
▁comparez	-11.8424
▁ultime	-11.8427
▁esthétique	-11.8427
▁conseillons	-11.8427
▁jouets	-11.8432
▁Cliquez	-11.8437
▁marine	-11.8437
▁soudain	-11.8437
▁tract	-11.8445
▁concédé	-11.8446
▁Muriel	-11.8449
▁Niel	-11.8458
▁Nature	-11.8458
▁compare	-11.846
▁banni	-11.8465
arrange	-11.8465
▁Nigeria	-11.8465
▁meurtre	-11.8465
▁Bachar	-11.8467
▁mutuel	-11.8472
▁Nova	-11.8475
Avignon	-11.8475
inventaire	-11.8483
▁plébiscité	-11.8484
▁[2]	-11.8484
▁buzz	-11.8485
▁pédagogie	-11.8494
▁viens	-11.8495
▁apprentis	-11.8502
▁retombé	-11.8503
▁ENSEIGN	-11.8503
▁Flickr	-11.8503
1,8	-11.8505
Nord	-11.8507
coréenne	-11.8509
Olympique	-11.8513
▁repartir	-11.8515
▁PASS	-11.8518
▁Infinite	-11.8523
4,5	-11.8524
▁adulte	-11.8526
▁boom	-11.8527
▁Imagin	-11.8533
▁fondement	-11.8535
▁envisageable	-11.8539
▁conventionné	-11.8539
Impôt	-11.854
effondre	-11.8542
▁BlackRock	-11.8542
▁aggravé	-11.8542
▁package	-11.855
▁Virginie	-11.8551
▁policier	-11.8556
bili	-11.8559
▁Vérifié	-11.8561
▁entraînant	-11.8561
▁possédez	-11.8561
▁tennis	-11.8561
ASSE	-11.8564
▁trouble	-11.8567
▁robuste	-11.8571
▁Meilleurebanque	-11.8571
▁Partenaire	-11.8571
▁Macif	-11.8573
petit	-11.8578
▁visualiser	-11.858
ATT	-11.8588
responsable	-11.8589
▁regroupant	-11.859
éléments	-11.8591
▁guéri	-11.8595
LAND	-11.8596
▁dépendra	-11.8601
▁reviendra	-11.8603
▁apprend	-11.8605
▁morceau	-11.8609
▁utilisable	-11.8619
automatisation	-11.8619
interface	-11.8619
▁1957	-11.8625
́	-11.8629
Habitat	-11.8629
▁Brest	-11.8636
▁acquitté	-11.8638
9,7	-11.8638
▁vérifié	-11.8639
QUI	-11.8646
Athènes	-11.8648
▁corporel	-11.8655
▁néglige	-11.8656
▁attentive	-11.8658
▁spread	-11.8658
▁suffira	-11.8658
▁saisonnière	-11.8659
▁vignette	-11.8661
▁1953	-11.8663
▁Suivez	-11.8668
Alain	-11.8669
argument	-11.8676
▁sociétal	-11.8677
▁confusion	-11.8679
apprendre	-11.8679
Opep	-11.8685
▁consomme	-11.8686
▁photovoltaïque	-11.8687
▁pétition	-11.8687
▁Télévisions	-11.8687
Calédonie	-11.8687
▁instructions	-11.8691
▁bagages	-11.8697
▁Sofinco	-11.8697
▁désastre	-11.8697
▁illégal	-11.8698
accroissement	-11.8705
▁interpellé	-11.8707
▁Professionnel	-11.871
therm	-11.8714
0,4%	-11.8716
Investissement	-11.8716
▁Bourbon	-11.8716
▁Cofinoga	-11.8716
▁Juin	-11.8718
8,3	-11.8723
▁strict	-11.8723
▁végétal	-11.8726
impulsion	-11.8726
▁Honda	-11.8726
▁Bull	-11.8735
/08/2018	-11.8736
▁prémunir	-11.8736
▁Texas	-11.8756
▁sauvage	-11.8756
▁supposé	-11.8756
▁Versement	-11.8756
artisan	-11.8759
▁palette	-11.8759
▁Mobilité	-11.8759
société	-11.8765
▁discrétion	-11.8766
▁breton	-11.8766
▁Money	-11.8772
▁Horizon	-11.8775
▁alentours	-11.8775
▁Dommage	-11.8775
▁macroéconomique	-11.8776
environnementaux	-11.8777
board	-11.8778
▁doper	-11.8781
▁porc	-11.879
▁Jordan	-11.8796
▁culte	-11.8797
animateur	-11.8804
Equipe	-11.8805
▁pérennité	-11.8805
▁Cybersécurité	-11.8805
▁labellisé	-11.8806
▁rejette	-11.8813
▁terrible	-11.8815
▁Annuel	-11.8815
▁Next	-11.8818
▁mémo	-11.8819
▁JAURES	-11.8825
▁matérialis	-11.8825
▁LAVAL	-11.8825
▁Membre	-11.8825
▁pivot	-11.8825
LDD	-11.8826
▁Camille	-11.8827
▁ignore	-11.8827
▁verrou	-11.8827
[...]
